{
  "version": "1.0",
  "truncation": null,
  "padding": null,
  "added_tokens": [
    {
      "id": 0,
      "content": "[PAD]",
      "single_word": false,
      "lstrip": false,
      "rstrip": false,
      "normalized": false,
      "special": true
    },
    {
      "id": 101,
      "content": "[UNK]",
      "single_word": false,
      "lstrip": false,
      "rstrip": false,
      "normalized": false,
      "special": true
    },
    {
      "id": 102,
      "content": "[CLS]",
      "single_word": false,
      "lstrip": false,
      "rstrip": false,
      "normalized": false,
      "special": true
    },
    {
      "id": 103,
      "content": "[SEP]",
      "single_word": false,
      "lstrip": false,
      "rstrip": false,
      "normalized": false,
      "special": true
    },
    {
      "id": 104,
      "content": "[MASK]",
      "single_word": false,
      "lstrip": false,
      "rstrip": false,
      "normalized": false,
      "special": true
    }
  ],
  "normalizer": {
    "type": "BertNormalizer",
    "clean_text": true,
    "handle_chinese_chars": true,
    "strip_accents": null,
    "lowercase": true
  },
  "pre_tokenizer": {
    "type": "BertPreTokenizer"
  },
  "post_processor": {
    "type": "TemplateProcessing",
    "single": [
      {
        "SpecialToken": {
          "id": "[CLS]",
          "type_id": 0
        }
      },
      {
        "Sequence": {
          "id": "A",
          "type_id": 0
        }
      },
      {
        "SpecialToken": {
          "id": "[SEP]",
          "type_id": 0
        }
      }
    ],
    "pair": [
      {
        "SpecialToken": {
          "id": "[CLS]",
          "type_id": 0
        }
      },
      {
        "Sequence": {
          "id": "A",
          "type_id": 0
        }
      },
      {
        "SpecialToken": {
          "id": "[SEP]",
          "type_id": 0
        }
      },
      {
        "Sequence": {
          "id": "B",
          "type_id": 1
        }
      },
      {
        "SpecialToken": {
          "id": "[SEP]",
          "type_id": 1
        }
      }
    ],
    "special_tokens": {
      "[CLS]": {
        "id": "[CLS]",
        "ids": [
          102
        ],
        "tokens": [
          "[CLS]"
        ]
      },
      "[SEP]": {
        "id": "[SEP]",
        "ids": [
          103
        ],
        "tokens": [
          "[SEP]"
        ]
      }
    }
  },
  "decoder": {
    "type": "WordPiece",
    "prefix": "##",
    "cleanup": true
  },
  "model": {
    "type": "WordPiece",
    "unk_token": "[UNK]",
    "continuing_subword_prefix": "##",
    "max_input_chars_per_word": 100,
    "vocab": {
      "[PAD]": 0,
      "unused0": 1,
      "unused1": 2,
      "unused2": 3,
      "unused3": 4,
      "unused4": 5,
      "unused5": 6,
      "unused6": 7,
      "unused7": 8,
      "unused8": 9,
      "unused9": 10,
      "unused10": 11,
      "unused11": 12,
      "unused12": 13,
      "unused13": 14,
      "unused14": 15,
      "unused15": 16,
      "unused16": 17,
      "unused17": 18,
      "unused18": 19,
      "unused19": 20,
      "unused20": 21,
      "unused21": 22,
      "unused22": 23,
      "unused23": 24,
      "unused24": 25,
      "unused25": 26,
      "unused26": 27,
      "unused27": 28,
      "unused28": 29,
      "unused29": 30,
      "unused30": 31,
      "unused31": 32,
      "unused32": 33,
      "unused33": 34,
      "unused34": 35,
      "unused35": 36,
      "unused36": 37,
      "unused37": 38,
      "unused38": 39,
      "unused39": 40,
      "unused40": 41,
      "unused41": 42,
      "unused42": 43,
      "unused43": 44,
      "unused44": 45,
      "unused45": 46,
      "unused46": 47,
      "unused47": 48,
      "unused48": 49,
      "unused49": 50,
      "unused50": 51,
      "unused51": 52,
      "unused52": 53,
      "unused53": 54,
      "unused54": 55,
      "unused55": 56,
      "unused56": 57,
      "unused57": 58,
      "unused58": 59,
      "unused59": 60,
      "unused60": 61,
      "unused61": 62,
      "unused62": 63,
      "unused63": 64,
      "unused64": 65,
      "unused65": 66,
      "unused66": 67,
      "unused67": 68,
      "unused68": 69,
      "unused69": 70,
      "unused70": 71,
      "unused71": 72,
      "unused72": 73,
      "unused73": 74,
      "unused74": 75,
      "unused75": 76,
      "unused76": 77,
      "unused77": 78,
      "unused78": 79,
      "unused79": 80,
      "unused80": 81,
      "unused81": 82,
      "unused82": 83,
      "unused83": 84,
      "unused84": 85,
      "unused85": 86,
      "unused86": 87,
      "unused87": 88,
      "unused88": 89,
      "unused89": 90,
      "unused90": 91,
      "unused91": 92,
      "unused92": 93,
      "unused93": 94,
      "unused94": 95,
      "unused95": 96,
      "unused96": 97,
      "unused97": 98,
      "unused98": 99,
      "unused99": 100,
      "[UNK]": 101,
      "[CLS]": 102,
      "[SEP]": 103,
      "[MASK]": 104,
      "d": 105,
      "c": 106,
      "s": 107,
      "##on": 108,
      "p": 109,
      "##er": 110,
      "a": 111,
      "##to": 112,
      "##re": 113,
      "i": 114,
      "##ta": 115,
      "##en": 116,
      "##ti": 117,
      "##la": 118,
      "di": 119,
      "##el": 120,
      "##ri": 121,
      "##ra": 122,
      "e": 123,
      "m": 124,
      "##li": 125,
      "##te": 126,
      "##le": 127,
      "n": 128,
      "##un": 129,
      "##ia": 130,
      "##ro": 131,
      "f": 132,
      "##an": 133,
      "##ion": 134,
      "in": 135,
      "##ss": 136,
      "del": 137,
      "v": 138,
      "##he": 139,
      "co": 140,
      "##in": 141,
      "un": 142,
      "la": 143,
      "##lo": 144,
      "g": 145,
      "##qu": 146,
      "##or": 147,
      "t": 148,
      "##zion": 149,
      "con": 150,
      "per": 151,
      "il": 152,
      "##ca": 153,
      "qu": 154,
      "al": 155,
      "##ar": 156,
      "##es": 157,
      "##co": 158,
      "che": 159,
      "b": 160,
      "##io": 161,
      "##men": 162,
      "o": 163,
      "##do": 164,
      "da": 165,
      "##zione": 166,
      "##is": 167,
      "##et": 168,
      "ri": 169,
      "##no": 170,
      "su": 171,
      "l": 172,
      "##ma": 173,
      "com": 174,
      "##ci": 175,
      "non": 176,
      "##mo": 177,
      "##di": 178,
      "##ere": 179,
      "##si": 180,
      "h": 181,
      "de": 182,
      "ma": 183,
      "-": 184,
      "le": 185,
      "##ce": 186,
      "##ono": 187,
      "##va": 188,
      "si": 189,
      "ca": 190,
      "##gli": 191,
      "##za": 192,
      "se": 193,
      "pro": 194,
      "po": 195,
      "##po": 196,
      "è": 197,
      "##mi": 198,
      "nel": 199,
      "##sa": 200,
      "re": 201,
      "##vo": 202,
      "an": 203,
      "so": 204,
      "##tu": 205,
      "##tto": 206,
      "1": 207,
      "##ch": 208,
      "##da": 209,
      "sta": 210,
      "##vi": 211,
      "##era": 212,
      "della": 213,
      "una": 214,
      "fa": 215,
      "pre": 216,
      "pa": 217,
      "##gg": 218,
      "##bi": 219,
      "tu": 220,
      "##st": 221,
      "##ve": 222,
      "##na": 223,
      "##mp": 224,
      "##al": 225,
      "##tà": 226,
      "##che": 227,
      "do": 228,
      "##..": 229,
      "##tti": 230,
      "##bb": 231,
      "mo": 232,
      "##se": 233,
      "no": 234,
      "##fi": 235,
      "##pp": 236,
      "##de": 237,
      "##...": 238,
      "##ni": 239,
      "##uo": 240,
      "##so": 241,
      "ques": 242,
      "(": 243,
      "2": 244,
      "lo": 245,
      "mi": 246,
      "##ter": 247,
      "ha": 248,
      "pi": 249,
      "##cia": 250,
      "##ssi": 251,
      "##ione": 252,
      "##ran": 253,
      "##sp": 254,
      "##mente": 255,
      "##sso": 256,
      "par": 257,
      "##mento": 258,
      "sono": 259,
      "vi": 260,
      "ci": 261,
      "##tra": 262,
      "me": 263,
      "dal": 264,
      "##tta": 265,
      "##ente": 266,
      "te": 267,
      "tra": 268,
      "u": 269,
      "ne": 270,
      "##ga": 271,
      "##ero": 272,
      "\"": 273,
      "##ina": 274,
      "##mb": 275,
      "sp": 276,
      "##eri": 277,
      "##sta": 278,
      "##ui": 279,
      "vo": 280,
      "##enti": 281,
      "##zioni": 282,
      "##go": 283,
      "##zza": 284,
      "##sti": 285,
      "##me": 286,
      "dei": 287,
      "ra": 288,
      "ch": 289,
      "sa": 290,
      "##tro": 291,
      "##ano": 292,
      "li": 293,
      "dell": 294,
      "##ru": 295,
      "##cu": 296,
      "gi": 297,
      "pri": 298,
      "come": 299,
      "##ale": 300,
      "##ver": 301,
      "##ff": 302,
      "##ssa": 303,
      "##ali": 304,
      "ti": 305,
      "##ne": 306,
      "##ten": 307,
      "##lu": 308,
      "delle": 309,
      "##zz": 310,
      "alla": 311,
      "##tori": 312,
      "##iamo": 313,
      "##tre": 314,
      "##ene": 315,
      "sul": 316,
      "##glio": 317,
      "##du": 318,
      "ta": 319,
      "ba": 320,
      "##zia": 321,
      "##pa": 322,
      "##00": 323,
      "##ini": 324,
      "##etto": 325,
      "##ando": 326,
      "gli": 327,
      "##cc": 328,
      "for": 329,
      "fi": 330,
      "##gu": 331,
      "ho": 332,
      "##sto": 333,
      "più": 334,
      "##tri": 335,
      "##ie": 336,
      "##enza": 337,
      "##one": 338,
      "19": 339,
      "quel": 340,
      "questo": 341,
      "##uni": 342,
      "##gno": 343,
      "pu": 344,
      "ar": 345,
      "##uto": 346,
      "##ine": 347,
      "##orta": 348,
      "##ino": 349,
      "comp": 350,
      "##man": 351,
      "du": 352,
      "##ggi": 353,
      "av": 354,
      "ess": 355,
      "##ria": 356,
      "##chi": 357,
      "ad": 358,
      "va": 359,
      "##rio": 360,
      "##con": 361,
      "all": 362,
      "##ul": 363,
      "na": 364,
      "##sse": 365,
      "##tura": 366,
      "nella": 367,
      "##ggio": 368,
      "to": 369,
      "anche": 370,
      "##bili": 371,
      "##enta": 372,
      "##etti": 373,
      "imp": 374,
      "##anno": 375,
      "##pi": 376,
      "ai": 377,
      "##pe": 378,
      "##cco": 379,
      "app": 380,
      "##fica": 381,
      "##oni": 382,
      "##gi": 383,
      "##sc": 384,
      "##uro": 385,
      "3": 386,
      "essere": 387,
      "##tico": 388,
      "##ani": 389,
      "suo": 390,
      "ro": 391,
      "##gra": 392,
      "##dere": 393,
      "##for": 394,
      "##menti": 395,
      "gra": 396,
      "##ssione": 397,
      "cosa": 398,
      "col": 399,
      "chi": 400,
      "ter": 401,
      "##etta": 402,
      "k": 403,
      "ven": 404,
      "cor": 405,
      "cre": 406,
      "##bile": 407,
      "##tte": 408,
      "w": 409,
      "sc": 410,
      "stato": 411,
      "j": 412,
      "ed": 413,
      "##ona": 414,
      "parte": 415,
      "fu": 416,
      "tro": 417,
      "##per": 418,
      "##zi": 419,
      "##glia": 420,
      "mol": 421,
      "##esi": 422,
      "##ven": 423,
      "##cce": 424,
      "qual": 425,
      "##mpo": 426,
      "##dia": 427,
      "##bbe": 428,
      "##ele": 429,
      "cui": 430,
      "##ba": 431,
      "solo": 432,
      "##gna": 433,
      "euro": 434,
      "ve": 435,
      "##gni": 436,
      "##der": 437,
      "pia": 438,
      "##are": 439,
      "##endo": 440,
      "##01": 441,
      "dire": 442,
      "inter": 443,
      "era": 444,
      "##hi": 445,
      "ser": 446,
      "##sci": 447,
      "##ppo": 448,
      "abb": 449,
      "##lare": 450,
      "##zio": 451,
      "##cato": 452,
      "gu": 453,
      "cer": 454,
      "pen": 455,
      "questa": 456,
      "ris": 457,
      "lavo": 458,
      "ric": 459,
      "bene": 460,
      "degli": 461,
      "##tere": 462,
      "##ché": 463,
      "##mma": 464,
      "sua": 465,
      "##zzo": 466,
      "##tare": 467,
      "prima": 468,
      "##tel": 469,
      "sia": 470,
      "##stra": 471,
      "fo": 472,
      "##ese": 473,
      "nuo": 474,
      "vis": 475,
      "##ffi": 476,
      "dalla": 477,
      "io": 478,
      "loro": 479,
      "alle": 480,
      "##ze": 481,
      "##tica": 482,
      "at": 483,
      "prop": 484,
      "giu": 485,
      "spe": 486,
      "consi": 487,
      "gen": 488,
      "ver": 489,
      "mon": 490,
      "en": 491,
      "##nte": 492,
      "##um": 493,
      "due": 494,
      "qui": 495,
      "gio": 496,
      "##esti": 497,
      "pres": 498,
      "pers": 499,
      "##lta": 500,
      "##ioni": 501,
      "tutti": 502,
      "##ron": 503,
      "tutto": 504,
      "4": 505,
      "##anti": 506,
      "quando": 507,
      "##lica": 508,
      "car": 509,
      "##tore": 510,
      "dov": 511,
      "man": 512,
      "##lan": 513,
      "or": 514,
      "##tali": 515,
      "europe": 516,
      "##vis": 517,
      "bu": 518,
      "comuni": 519,
      "##uta": 520,
      "##bo": 521,
      "fatto": 522,
      "sei": 523,
      "##ge": 524,
      "stati": 525,
      "ste": 526,
      "200": 527,
      "##missione": 528,
      "##dio": 529,
      "cos": 530,
      "##ren": 531,
      "ave": 532,
      "5": 533,
      "mar": 534,
      "##gia": 535,
      "##ello": 536,
      "hai": 537,
      "##mina": 538,
      "gran": 539,
      "##lla": 540,
      "hanno": 541,
      "gior": 542,
      "anni": 543,
      "au": 544,
      "ga": 545,
      "##cch": 546,
      "dopo": 547,
      "##ccia": 548,
      "rela": 549,
      "am": 550,
      "far": 551,
      "uno": 552,
      "fare": 553,
      "##forma": 554,
      "men": 555,
      "##gn": 556,
      "contro": 557,
      "uni": 558,
      "dove": 559,
      "##cca": 560,
      "##uti": 561,
      "##anto": 562,
      "201": 563,
      "dis": 564,
      "##iso": 565,
      "chia": 566,
      "commissione": 567,
      "##sione": 568,
      "sulla": 569,
      "semp": 570,
      "##tato": 571,
      "bo": 572,
      "##ena": 573,
      "##ur": 574,
      "mio": 575,
      "##).": 576,
      "molto": 577,
      "nell": 578,
      "##pera": 579,
      "allo": 580,
      "##ck": 581,
      "##cio": 582,
      "poli": 583,
      "##cora": 584,
      "##il": 585,
      "qua": 586,
      "##dente": 587,
      "secon": 588,
      "be": 589,
      "##via": 590,
      "fin": 591,
      "##ho": 592,
      "##),": 593,
      "##orto": 594,
      "##ha": 595,
      "disp": 596,
      "##tiva": 597,
      "##cono": 598,
      "lu": 599,
      "##que": 600,
      "##dre": 601,
      "tuo": 602,
      "cons": 603,
      "##iste": 604,
      "quello": 605,
      "conc": 606,
      "reg": 607,
      "##indi": 608,
      "fe": 609,
      "succe": 610,
      "##une": 611,
      "sca": 612,
      "ora": 613,
      "cen": 614,
      "##tua": 615,
      "|": 616,
      "sco": 617,
      "##tivo": 618,
      "inf": 619,
      "go": 620,
      "##zie": 621,
      "##'.": 622,
      "can": 623,
      "bi": 624,
      "prodo": 625,
      "indi": 626,
      "##stitu": 627,
      "##vano": 628,
      "##rebbe": 629,
      "##stri": 630,
      "può": 631,
      "##zo": 632,
      "##llo": 633,
      "6": 634,
      "altri": 635,
      "san": 636,
      "##ing": 637,
      "##lmente": 638,
      "porta": 639,
      "##am": 640,
      "sal": 641,
      "via": 642,
      "##ord": 643,
      "es": 644,
      "tre": 645,
      "##ante": 646,
      "tempo": 647,
      "spa": 648,
      "servi": 649,
      "trova": 650,
      "pubb": 651,
      "perché": 652,
      "alc": 653,
      "##stro": 654,
      "tor": 655,
      "##rie": 656,
      "nei": 657,
      "stra": 658,
      "el": 659,
      "##uno": 660,
      "##\",": 661,
      "fra": 662,
      "##tin": 663,
      "##gui": 664,
      "acc": 665,
      "mia": 666,
      "poss": 667,
      "poi": 668,
      "ancora": 669,
      "pun": 670,
      "##ette": 671,
      "questi": 672,
      "fon": 673,
      "##bilità": 674,
      "##tan": 675,
      "##cis": 676,
      "quanto": 677,
      "conf": 678,
      "##scia": 679,
      "st": 680,
      "ni": 681,
      "diver": 682,
      "così": 683,
      "##ltre": 684,
      "quali": 685,
      "stu": 686,
      ".": 687,
      "lib": 688,
      "##ccu": 689,
      "memb": 690,
      "##ggia": 691,
      "sotto": 692,
      "##ura": 693,
      "esp": 694,
      "casa": 695,
      "vuo": 696,
      "##\".": 697,
      "##min": 698,
      "quindi": 699,
      "##colo": 700,
      "##elli": 701,
      "aff": 702,
      "mer": 703,
      "lei": 704,
      "fran": 705,
      "dall": 706,
      "and": 707,
      "##ste": 708,
      "anda": 709,
      "cri": 710,
      "tratta": 711,
      "lavoro": 712,
      "ogni": 713,
      "ok": 714,
      "parla": 715,
      "7": 716,
      "##tt": 717,
      "##rare": 718,
      "##mer": 719,
      "detto": 720,
      "modo": 721,
      "##pre": 722,
      "mai": 723,
      "##zionale": 724,
      "vita": 725,
      "ten": 726,
      "possi": 727,
      "##posi": 728,
      "atti": 729,
      "stata": 730,
      "##lizza": 731,
      "##età": 732,
      "##cip": 733,
      "risp": 734,
      "consiglio": 735,
      "sempre": 736,
      "##ella": 737,
      "199": 738,
      "##',": 739,
      "##ttu": 740,
      "forma": 741,
      "9": 742,
      "grazie": 743,
      "ini": 744,
      "parti": 745,
      "##pri": 746,
      "capi": 747,
      "num": 748,
      "##zzi": 749,
      "pren": 750,
      "##ggiun": 751,
      "mu": 752,
      "cir": 753,
      "##qua": 754,
      "rego": 755,
      "##ian": 756,
      "prin": 757,
      "svi": 758,
      "pe": 759,
      "##rante": 760,
      "lui": 761,
      "abbiamo": 762,
      "##ard": 763,
      "informa": 764,
      "nelle": 765,
      "sicu": 766,
      "##ttura": 767,
      "prog": 768,
      "##rono": 769,
      "sin": 770,
      "uti": 771,
      "itali": 772,
      "##mbre": 773,
      "##elo": 774,
      "##ato": 775,
      "importa": 776,
      "##19": 777,
      "##dera": 778,
      "senza": 779,
      "sen": 780,
      "siste": 781,
      "##istra": 782,
      "potre": 783,
      "vol": 784,
      "er": 785,
      "8": 786,
      "##ciale": 787,
      "##sco": 788,
      "gia": 789,
      "comple": 790,
      "##anza": 791,
      "sì": 792,
      "##fo": 793,
      "off": 794,
      "##tale": 795,
      "piu": 796,
      "##esa": 797,
      "##mon": 798,
      "quella": 799,
      "mis": 800,
      "##ble": 801,
      "raga": 802,
      "##stan": 803,
      "##tamente": 804,
      "##stru": 805,
      "min": 806,
      "dai": 807,
      "asp": 808,
      "numero": 809,
      "dio": 810,
      "##ana": 811,
      "senti": 812,
      "##rato": 813,
      "##tivi": 814,
      "ce": 815,
      "ac": 816,
      "##tter": 817,
      "##tiche": 818,
      "secondo": 819,
      "##vere": 820,
      "volta": 821,
      "cono": 822,
      "##cen": 823,
      "z": 824,
      "##met": 825,
      "0": 826,
      "perche": 827,
      "cit": 828,
      "val": 829,
      "18": 830,
      "signo": 831,
      "##eni": 832,
      "noi": 833,
      "##ure": 834,
      "10": 835,
      "produ": 836,
      "#": 837,
      "stru": 838,
      "rapp": 839,
      "tras": 840,
      "siamo": 841,
      "cam": 842,
      "svilu": 843,
      "grande": 844,
      "##arda": 845,
      "##fa": 846,
      "##mpa": 847,
      "##us": 848,
      "##vero": 849,
      "genera": 850,
      "tutta": 851,
      "##denti": 852,
      "##ordo": 853,
      "proprio": 854,
      "proce": 855,
      "miglio": 856,
      "fer": 857,
      "##th": 858,
      "cal": 859,
      "primo": 860,
      "sti": 861,
      "maggio": 862,
      "ru": 863,
      "r": 864,
      "##res": 865,
      "dav": 866,
      "##tive": 867,
      "##razione": 868,
      "regola": 869,
      "oh": 870,
      "##arti": 871,
      "viene": 872,
      "condi": 873,
      "membri": 874,
      "##una": 875,
      "##rig": 876,
      "fino": 877,
      "tua": 878,
      "##alizza": 879,
      "##feri": 880,
      "##ticolo": 881,
      "##rà": 882,
      "ami": 883,
      "cu": 884,
      "##tor": 885,
      "progra": 886,
      "arri": 887,
      "allora": 888,
      "##gione": 889,
      "presi": 890,
      "##gono": 891,
      "inc": 892,
      "stan": 893,
      "##fe": 894,
      "ese": 895,
      "##ll": 896,
      "nor": 897,
      "##chia": 898,
      "gru": 899,
      "dice": 900,
      "##vità": 901,
      "ul": 902,
      "proble": 903,
      "stori": 904,
      "fami": 905,
      "ness": 906,
      "fun": 907,
      "##rei": 908,
      "città": 909,
      "colle": 910,
      "cla": 911,
      "partico": 912,
      "##ghi": 913,
      "lascia": 914,
      "##stre": 915,
      "##esta": 916,
      "nuovo": 917,
      "##pra": 918,
      "ag": 919,
      "##posta": 920,
      "##sia": 921,
      "pubbli": 922,
      "nece": 923,
      "super": 924,
      "contin": 925,
      "##enze": 926,
      "bar": 927,
      "##mini": 928,
      "##lazione": 929,
      "##ber": 930,
      "europea": 931,
      "mondo": 932,
      "tutte": 933,
      "puo": 934,
      "stesso": 935,
      "##amo": 936,
      "##usa": 937,
      "altre": 938,
      "##menta": 939,
      "situa": 940,
      "quale": 941,
      "don": 942,
      "##glie": 943,
      "##etro": 944,
      "##vol": 945,
      "##isce": 946,
      "##van": 947,
      "pag": 948,
      "##teria": 949,
      "già": 950,
      "##cina": 951,
      "##imp": 952,
      "deve": 953,
      "##nto": 954,
      "eff": 955,
      "##cosa": 956,
      "suoi": 957,
      "fuo": 958,
      "presenta": 959,
      "##lli": 960,
      "tec": 961,
      "—": 962,
      "##tten": 963,
      "uo": 964,
      "decis": 965,
      "mentre": 966,
      "##ranno": 967,
      "mor": 968,
      "caso": 969,
      "persone": 970,
      "passa": 971,
      "##ritto": 972,
      "pensa": 973,
      "princip": 974,
      "##cci": 975,
      "picco": 976,
      "##rica": 977,
      "lun": 978,
      "##quis": 979,
      "comunità": 980,
      "prodotti": 981,
      "cosi": 982,
      "comune": 983,
      "sar": 984,
      "nome": 985,
      "liv": 986,
      "##unque": 987,
      "aver": 988,
      "sistema": 989,
      "beh": 990,
      "fine": 991,
      "##bito": 992,
      "##vole": 993,
      "##vato": 994,
      "y": 995,
      "mili": 996,
      "cli": 997,
      "##bu": 998,
      "para": 999,
      "##gani": 1000,
      "ass": 1001,
      "inizia": 1002,
      "segui": 1003,
      "##dra": 1004,
      "##lle": 1005,
      "econo": 1006,
      "15": 1007,
      "##ssimo": 1008,
      "entra": 1009,
      "qualcosa": 1010,
      "giorno": 1011,
      "##ita": 1012,
      "semb": 1013,
      "##cchi": 1014,
      "##gio": 1015,
      "##ulti": 1016,
      "198": 1017,
      "##inter": 1018,
      "durante": 1019,
      "##ggior": 1020,
      "12": 1021,
      "ele": 1022,
      "voglio": 1023,
      "##elle": 1024,
      "fre": 1025,
      "possono": 1026,
      "posso": 1027,
      "altro": 1028,
      "vero": 1029,
      "cara": 1030,
      "conta": 1031,
      "“": 1032,
      "##zionali": 1033,
      "medi": 1034,
      "sopra": 1035,
      "posi": 1036,
      "intere": 1037,
      "ino": 1038,
      "bamb": 1039,
      "camp": 1040,
      "##.1": 1041,
      "aveva": 1042,
      "##ziona": 1043,
      "##pen": 1044,
      "auto": 1045,
      "##almente": 1046,
      "##ei": 1047,
      "davvero": 1048,
      "dello": 1049,
      "##eli": 1050,
      "ricer": 1051,
      "paesi": 1052,
      "chiama": 1053,
      "x": 1054,
      "sto": 1055,
      "favo": 1056,
      "##sie": 1057,
      "ban": 1058,
      "rigu": 1059,
      "economi": 1060,
      "ben": 1061,
      "##rico": 1062,
      "##ster": 1063,
      "posto": 1064,
      "##ccio": 1065,
      "div": 1066,
      "##ciali": 1067,
      "biso": 1068,
      "rip": 1069,
      "bra": 1070,
      "des": 1071,
      "risul": 1072,
      "ehi": 1073,
      "##dis": 1074,
      "tale": 1075,
      "punto": 1076,
      "##erie": 1077,
      "pes": 1078,
      "##sioni": 1079,
      "base": 1080,
      "##ffici": 1081,
      "informazioni": 1082,
      "##ccupa": 1083,
      "materia": 1084,
      "tipo": 1085,
      "##erva": 1086,
      "lin": 1087,
      "agli": 1088,
      "speci": 1089,
      "scu": 1090,
      "niente": 1091,
      "por": 1092,
      "sai": 1093,
      "##anta": 1094,
      "##mpio": 1095,
      "##ell": 1096,
      "nostro": 1097,
      "##gh": 1098,
      "##anzia": 1099,
      "contra": 1100,
      "##rezza": 1101,
      "alcuni": 1102,
      "##cità": 1103,
      "##tenza": 1104,
      "tele": 1105,
      "colo": 1106,
      "prote": 1107,
      "disponi": 1108,
      "ado": 1109,
      "queste": 1110,
      "opera": 1111,
      "ade": 1112,
      "##qui": 1113,
      "##mmi": 1114,
      "##au": 1115,
      "##care": 1116,
      "##unione": 1117,
      "##lm": 1118,
      "inoltre": 1119,
      "met": 1120,
      "##gua": 1121,
      "##tion": 1122,
      "sui": 1123,
      "##dono": 1124,
      "cia": 1125,
      "##rsi": 1126,
      "gruppo": 1127,
      "ge": 1128,
      "##mmo": 1129,
      "##ris": 1130,
      "##spi": 1131,
      "##gue": 1132,
      "programma": 1133,
      "vin": 1134,
      "utilizza": 1135,
      "##000": 1136,
      "europeo": 1137,
      "##ttiva": 1138,
      "##vin": 1139,
      "##eno": 1140,
      "chie": 1141,
      "##gre": 1142,
      "necessa": 1143,
      "##ari": 1144,
      "popo": 1145,
      "mani": 1146,
      "stai": 1147,
      "interna": 1148,
      "##iore": 1149,
      "centro": 1150,
      "jo": 1151,
      "esa": 1152,
      "usa": 1153,
      "oggi": 1154,
      "fuori": 1155,
      ",": 1156,
      "forse": 1157,
      "cose": 1158,
      "##ndo": 1159,
      "desi": 1160,
      "##ttore": 1161,
      "dalle": 1162,
      "##denza": 1163,
      "def": 1164,
      "rin": 1165,
      "presidente": 1166,
      "##tici": 1167,
      "vuoi": 1168,
      "«": 1169,
      "ricor": 1170,
      "##fer": 1171,
      "tri": 1172,
      "modi": 1173,
      "doman": 1174,
      "##dro": 1175,
      "momento": 1176,
      "nuova": 1177,
      "##app": 1178,
      "camb": 1179,
      "##tera": 1180,
      "##esco": 1181,
      "ricerca": 1182,
      "sembra": 1183,
      "andare": 1184,
      "visto": 1185,
      "##ire": 1186,
      "##eter": 1187,
      "certo": 1188,
      "##ton": 1189,
      "veri": 1190,
      "##cendo": 1191,
      "sarà": 1192,
      "natura": 1193,
      "padre": 1194,
      "##.2": 1195,
      "voi": 1196,
      "conte": 1197,
      "##nti": 1198,
      "##line": 1199,
      "##tati": 1200,
      "legg": 1201,
      "loca": 1202,
      "##bbero": 1203,
      "ciò": 1204,
      "##meno": 1205,
      "##atti": 1206,
      "continu": 1207,
      "on": 1208,
      "##ganizza": 1209,
      "20": 1210,
      "17": 1211,
      "##gato": 1212,
      "particolare": 1213,
      "rappres": 1214,
      "##tolo": 1215,
      "perio": 1216,
      "negli": 1217,
      "possibile": 1218,
      "politica": 1219,
      "##sieme": 1220,
      "attra": 1221,
      "vole": 1222,
      "##ettore": 1223,
      "circa": 1224,
      "##ppa": 1225,
      "##lità": 1226,
      "finanzia": 1227,
      "##spon": 1228,
      "sviluppo": 1229,
      "##opera": 1230,
      "servizi": 1231,
      "##ista": 1232,
      "avere": 1233,
      "vic": 1234,
      "##dato": 1235,
      "16": 1236,
      "aspetta": 1237,
      "puoi": 1238,
      "applica": 1239,
      "asso": 1240,
      "favore": 1241,
      "conten": 1242,
      "famiglia": 1243,
      "##sh": 1244,
      "##ture": 1245,
      "livello": 1246,
      "##fici": 1247,
      "##mia": 1248,
      "oltre": 1249,
      "rappresenta": 1250,
      "fini": 1251,
      "diff": 1252,
      "erano": 1253,
      "##mar": 1254,
      "##gere": 1255,
      "mari": 1256,
      "tran": 1257,
      "sulle": 1258,
      "14": 1259,
      "##ke": 1260,
      "##enzia": 1261,
      "sull": 1262,
      "##edi": 1263,
      "–": 1264,
      "##cri": 1265,
      "cap": 1266,
      "serie": 1267,
      "cin": 1268,
      "causa": 1269,
      "##ort": 1270,
      "bisogno": 1271,
      "ren": 1272,
      "disposi": 1273,
      "abi": 1274,
      "##bbiamo": 1275,
      "##gnor": 1276,
      "##vono": 1277,
      "prodotto": 1278,
      "mercato": 1279,
      "##ist": 1280,
      "devo": 1281,
      "conse": 1282,
      "soci": 1283,
      "##ghe": 1284,
      "sor": 1285,
      "foto": 1286,
      "nostra": 1287,
      "regolamento": 1288,
      "##tano": 1289,
      "ulti": 1290,
      "sarebbe": 1291,
      "##pere": 1292,
      "##tazione": 1293,
      "ins": 1294,
      "sue": 1295,
      "insieme": 1296,
      "gover": 1297,
      "the": 1298,
      "terra": 1299,
      "molti": 1300,
      "commer": 1301,
      "rice": 1302,
      "aggiun": 1303,
      "inten": 1304,
      "##lato": 1305,
      "signor": 1306,
      "##articolo": 1307,
      "##azione": 1308,
      "edi": 1309,
      "torna": 1310,
      "##ad": 1311,
      "verso": 1312,
      "persona": 1313,
      "appro": 1314,
      "qualc": 1315,
      "successo": 1316,
      "piano": 1317,
      "##ssion": 1318,
      "trasp": 1319,
      "##dendo": 1320,
      "##ts": 1321,
      "##erci": 1322,
      "compa": 1323,
      "##ry": 1324,
      "##mine": 1325,
      "##mpi": 1326,
      "setti": 1327,
      "##tario": 1328,
      "profe": 1329,
      "faccia": 1330,
      "##isti": 1331,
      "13": 1332,
      "person": 1333,
      "##mmag": 1334,
      "meno": 1335,
      "rec": 1336,
      "soli": 1337,
      "ja": 1338,
      "raggiun": 1339,
      "otten": 1340,
      "##torio": 1341,
      "##acc": 1342,
      "pra": 1343,
      "##cchia": 1344,
      "##ranti": 1345,
      "##luzione": 1346,
      "scri": 1347,
      "settore": 1348,
      "11": 1349,
      "credo": 1350,
      "orig": 1351,
      "parlamento": 1352,
      "fonda": 1353,
      "dati": 1354,
      "##rata": 1355,
      "##rai": 1356,
      "##ssima": 1357,
      "##duzione": 1358,
      "ann": 1359,
      "anno": 1360,
      "attività": 1361,
      "##ger": 1362,
      "##mu": 1363,
      "qualche": 1364,
      "storia": 1365,
      "luo": 1366,
      "197": 1367,
      "meglio": 1368,
      "film": 1369,
      "##vare": 1370,
      "diventa": 1371,
      "##bre": 1372,
      "racco": 1373,
      "##inale": 1374,
      "##-1": 1375,
      "seguito": 1376,
      "hotel": 1377,
      "opp": 1378,
      "relazione": 1379,
      "dia": 1380,
      "##son": 1381,
      "appar": 1382,
      "bre": 1383,
      "realizza": 1384,
      "generale": 1385,
      "guarda": 1386,
      "presente": 1387,
      "periodo": 1388,
      "line": 1389,
      "segu": 1390,
      "##sce": 1391,
      "##lin": 1392,
      "giorni": 1393,
      "##cano": 1394,
      "franc": 1395,
      "abbia": 1396,
      "sicurezza": 1397,
      "costitu": 1398,
      "considera": 1399,
      "guer": 1400,
      "attraver": 1401,
      "figlio": 1402,
      "incon": 1403,
      "signi": 1404,
      "musi": 1405,
      "acco": 1406,
      "##mana": 1407,
      "ide": 1408,
      "pote": 1409,
      "dovre": 1410,
      "rep": 1411,
      "volte": 1412,
      "##lari": 1413,
      "esempio": 1414,
      "gui": 1415,
      "##at": 1416,
      "signore": 1417,
      "successi": 1418,
      "media": 1419,
      "defini": 1420,
      "##dica": 1421,
      "sempli": 1422,
      "##ute": 1423,
      "sol": 1424,
      "vedere": 1425,
      "##0,": 1426,
      "vor": 1427,
      "ali": 1428,
      "##ac": 1429,
      "##gan": 1430,
      "autori": 1431,
      "paese": 1432,
      "paro": 1433,
      "ecco": 1434,
      "##mato": 1435,
      "potrebbe": 1436,
      "pubblica": 1437,
      "rispetto": 1438,
      "##fon": 1439,
      "seconda": 1440,
      "sci": 1441,
      "den": 1442,
      "qualcuno": 1443,
      "ord": 1444,
      "##vamente": 1445,
      "##bietti": 1446,
      "istitu": 1447,
      "assi": 1448,
      "##est": 1449,
      ":": 1450,
      "##ministra": 1451,
      "##0.": 1452,
      "uffi": 1453,
      "cio": 1454,
      "sette": 1455,
      "capo": 1456,
      "##rlo": 1457,
      "decisione": 1458,
      "fosse": 1459,
      "[": 1460,
      "##be": 1461,
      "apri": 1462,
      "##rre": 1463,
      "##enda": 1464,
      "##esto": 1465,
      "problema": 1466,
      "italia": 1467,
      "##stanza": 1468,
      "##venti": 1469,
      "state": 1470,
      "dobbiamo": 1471,
      "##labo": 1472,
      "##all": 1473,
      "tuttavia": 1474,
      "##lore": 1475,
      "inve": 1476,
      "##cchio": 1477,
      "significa": 1478,
      "##erà": 1479,
      "km": 1480,
      "'": 1481,
      "norma": 1482,
      "direttiva": 1483,
      "acce": 1484,
      "##lio": 1485,
      "##rti": 1486,
      "forni": 1487,
      "##posto": 1488,
      "tecni": 1489,
      "##altra": 1490,
      "società": 1491,
      "classi": 1492,
      "##scita": 1493,
      "gre": 1494,
      "tanto": 1495,
      "ani": 1496,
      "richi": 1497,
      "ore": 1498,
      "caratter": 1499,
      "gesti": 1500,
      "cambia": 1501,
      "chiesa": 1502,
      "servizio": 1503,
      "citta": 1504,
      "prece": 1505,
      "##cro": 1506,
      "##orso": 1507,
      "terri": 1508,
      "##land": 1509,
      "##orti": 1510,
      "male": 1511,
      "cul": 1512,
      "##uso": 1513,
      "ii": 1514,
      "condizioni": 1515,
      "limi": 1516,
      "mod": 1517,
      "venne": 1518,
      "##-2": 1519,
      "pron": 1520,
      "##lia": 1521,
      "##ito": 1522,
      "vista": 1523,
      "impre": 1524,
      "##altro": 1525,
      "data": 1526,
      "invece": 1527,
      "##iori": 1528,
      "importante": 1529,
      "nazionale": 1530,
      "organizza": 1531,
      "25": 1532,
      "madre": 1533,
      "vuole": 1534,
      "produzione": 1535,
      "##'?": 1536,
      "adesso": 1537,
      "##ttamente": 1538,
      "##ka": 1539,
      "##sten": 1540,
      "##and": 1541,
      "sito": 1542,
      "dato": 1543,
      "riu": 1544,
      "possiamo": 1545,
      "nessuno": 1546,
      "##dita": 1547,
      "sch": 1548,
      "lavora": 1549,
      "posizione": 1550,
      "##logi": 1551,
      "corso": 1552,
      "##str": 1553,
      "diversi": 1554,
      "24": 1555,
      "##gare": 1556,
      "##==": 1557,
      "##eria": 1558,
      "(1": 1559,
      "##cere": 1560,
      "evi": 1561,
      "stessa": 1562,
      "scon": 1563,
      "##ardo": 1564,
      "##rmi": 1565,
      "##stica": 1566,
      "##ane": 1567,
      "modifica": 1568,
      "amico": 1569,
      "controllo": 1570,
      "##cazione": 1571,
      "stabili": 1572,
      "##arsi": 1573,
      "corre": 1574,
      "##2,": 1575,
      "##ttro": 1576,
      "otto": 1577,
      "spo": 1578,
      "ruo": 1579,
      "##iace": 1580,
      "desti": 1581,
      "##ssioni": 1582,
      "sud": 1583,
      "scel": 1584,
      "##tari": 1585,
      "atten": 1586,
      "##cipa": 1587,
      "immag": 1588,
      "lon": 1589,
      "bri": 1590,
      "##vesti": 1591,
      "##telli": 1592,
      "##cando": 1593,
      "##ok": 1594,
      "devi": 1595,
      "dan": 1596,
      "30": 1597,
      "macch": 1598,
      "struttura": 1599,
      "##stante": 1600,
      "im": 1601,
      "ero": 1602,
      "indu": 1603,
      "spi": 1604,
      "##versi": 1605,
      "squa": 1606,
      "ov": 1607,
      "ambi": 1608,
      "##accordo": 1609,
      "guerra": 1610,
      "lungo": 1611,
      "1.": 1612,
      "##ly": 1613,
      "troppo": 1614,
      "##chio": 1615,
      "quelli": 1616,
      "pari": 1617,
      "##scri": 1618,
      "##entra": 1619,
      "arti": 1620,
      "inte": 1621,
      "##coli": 1622,
      "quattro": 1623,
      "diritto": 1624,
      "comi": 1625,
      "##trib": 1626,
      "forza": 1627,
      "andiamo": 1628,
      "##com": 1629,
      "problemi": 1630,
      "luogo": 1631,
      "##tata": 1632,
      "cro": 1633,
      "##uomo": 1634,
      "presso": 1635,
      "campo": 1636,
      "ex": 1637,
      "##2.": 1638,
      "##cee": 1639,
      "##cra": 1640,
      "bru": 1641,
      "##ttere": 1642,
      "mano": 1643,
      "file": 1644,
      "avuto": 1645,
      "mostra": 1646,
      "aiuta": 1647,
      "alcune": 1648,
      "qualità": 1649,
      "riso": 1650,
      "progetto": 1651,
      "##3.": 1652,
      "nu": 1653,
      "faci": 1654,
      "fai": 1655,
      "nostri": 1656,
      "dicembre": 1657,
      "quelle": 1658,
      "##3,": 1659,
      "lega": 1660,
      "tali": 1661,
      "conosc": 1662,
      "##orre": 1663,
      "attraverso": 1664,
      "docu": 1665,
      "registra": 1666,
      "confer": 1667,
      "new": 1668,
      "supp": 1669,
      "proposta": 1670,
      "otti": 1671,
      "giorna": 1672,
      "##1,": 1673,
      "appena": 1674,
      "musica": 1675,
      "strada": 1676,
      "##volo": 1677,
      "dichia": 1678,
      "acquis": 1679,
      "corpo": 1680,
      "morte": 1681,
      "nove": 1682,
      "pla": 1683,
      "adotta": 1684,
      "##mani": 1685,
      "quest": 1686,
      "##siasi": 1687,
      "##des": 1688,
      "##dini": 1689,
      "##199": 1690,
      "parlare": 1691,
      "asco": 1692,
      "partecipa": 1693,
      "previs": 1694,
      "qualsiasi": 1695,
      "ger": 1696,
      "##ulla": 1697,
      "giugno": 1698,
      "anima": 1699,
      "letto": 1700,
      "elet": 1701,
      "sociale": 1702,
      "offer": 1703,
      "giovan": 1704,
      "##taria": 1705,
      "prepa": 1706,
      "##5,": 1707,
      "studio": 1708,
      "##/2": 1709,
      "##sponsa": 1710,
      "attu": 1711,
      "##onore": 1712,
      "##ay": 1713,
      "prezzo": 1714,
      "quanti": 1715,
      "facendo": 1716,
      "##pro": 1717,
      "ori": 1718,
      "centra": 1719,
      "ber": 1720,
      "tal": 1721,
      "##este": 1722,
      "conto": 1723,
      "bian": 1724,
      "##sca": 1725,
      "sape": 1726,
      "##tr": 1727,
      "poter": 1728,
      "##ue": 1729,
      "##diamo": 1730,
      "effetti": 1731,
      "scuo": 1732,
      "##mane": 1733,
      "##entale": 1734,
      "uomo": 1735,
      "subito": 1736,
      "##mbi": 1737,
      "uomini": 1738,
      "##grafo": 1739,
      "##trice": 1740,
      "bal": 1741,
      "##tello": 1742,
      "cuo": 1743,
      "misure": 1744,
      "##euro": 1745,
      "##tamento": 1746,
      "ricono": 1747,
      "lan": 1748,
      "impe": 1749,
      "conclu": 1750,
      "##messo": 1751,
      "messa": 1752,
      "grandi": 1753,
      "##zzazione": 1754,
      "stre": 1755,
      "we": 1756,
      "aper": 1757,
      "trovare": 1758,
      "##vento": 1759,
      "quasi": 1760,
      "anti": 1761,
      "testa": 1762,
      "##fiche": 1763,
      "oss": 1764,
      "vari": 1765,
      "tradi": 1766,
      "vostro": 1767,
      "deter": 1768,
      "totale": 1769,
      "ciao": 1770,
      "bambini": 1771,
      "##ty": 1772,
      "però": 1773,
      "milioni": 1774,
      "responsa": 1775,
      "##istenza": 1776,
      "##gle": 1777,
      "dip": 1778,
      "ucc": 1779,
      "##ppe": 1780,
      "devono": 1781,
      "vengono": 1782,
      "donna": 1783,
      "spesso": 1784,
      "prendere": 1785,
      "##ld": 1786,
      "##voli": 1787,
      "##mano": 1788,
      "meri": 1789,
      "##4,": 1790,
      "set": 1791,
      "grado": 1792,
      "fron": 1793,
      "of": 1794,
      "##visione": 1795,
      "pare": 1796,
      "##struzione": 1797,
      "comitato": 1798,
      "##deo": 1799,
      "cazzo": 1800,
      "destina": 1801,
      "##gen": 1802,
      "singo": 1803,
      "##val": 1804,
      "##logia": 1805,
      "dec": 1806,
      "##naio": 1807,
      "diri": 1808,
      "##bbia": 1809,
      "villa": 1810,
      "rich": 1811,
      "dovrebbe": 1812,
      "##rane": 1813,
      "siano": 1814,
      "##tero": 1815,
      "##poli": 1816,
      "##ppi": 1817,
      "##ppia": 1818,
      "situazione": 1819,
      "fis": 1820,
      "##stria": 1821,
      "##col": 1822,
      "valuta": 1823,
      "##cati": 1824,
      "piace": 1825,
      "##su": 1826,
      "bel": 1827,
      "svol": 1828,
      "...": 1829,
      "termine": 1830,
      "##ssero": 1831,
      "detta": 1832,
      "##vata": 1833,
      "##rire": 1834,
      "##ki": 1835,
      "##tanti": 1836,
      "”": 1837,
      "##ut": 1838,
      "miei": 1839,
      "##6,": 1840,
      "sie": 1841,
      "buon": 1842,
      "mesi": 1843,
      "##strui": 1844,
      "##--": 1845,
      "##rando": 1846,
      "propri": 1847,
      "inclu": 1848,
      "noti": 1849,
      "ucci": 1850,
      "stagione": 1851,
      "##stico": 1852,
      "/": 1853,
      "tur": 1854,
      "semplice": 1855,
      "pis": 1856,
      "##dare": 1857,
      "##lina": 1858,
      "sapere": 1859,
      "forte": 1860,
      "##ner": 1861,
      "infatti": 1862,
      "secolo": 1863,
      "farlo": 1864,
      "garanti": 1865,
      "capa": 1866,
      "compren": 1867,
      "luglio": 1868,
      "giusto": 1869,
      "regno": 1870,
      "avete": 1871,
      "tecno": 1872,
      "##mici": 1873,
      "##fico": 1874,
      "##zze": 1875,
      "##moni": 1876,
      "##8,": 1877,
      "discu": 1878,
      "cerca": 1879,
      "##operazione": 1880,
      "##av": 1881,
      "uniti": 1882,
      "testi": 1883,
      "##mbo": 1884,
      "articolo": 1885,
      "penso": 1886,
      "minuti": 1887,
      "##mentare": 1888,
      "##dice": 1889,
      "##9,": 1890,
      "nello": 1891,
      "velo": 1892,
      "##fia": 1893,
      "buona": 1894,
      "##ai": 1895,
      "##tono": 1896,
      "lett": 1897,
      "necessario": 1898,
      "pensi": 1899,
      "##bilmente": 1900,
      "22": 1901,
      "inse": 1902,
      "##ficazione": 1903,
      "maggiore": 1904,
      "conce": 1905,
      "assicu": 1906,
      "ges": 1907,
      "internazionale": 1908,
      "21": 1909,
      "riferi": 1910,
      "poco": 1911,
      "preo": 1912,
      "possibilità": 1913,
      "##ag": 1914,
      "libera": 1915,
      "tar": 1916,
      "mondia": 1917,
      "##gie": 1918,
      "##'...": 1919,
      "credi": 1920,
      "mini": 1921,
      "##ubb": 1922,
      "paragrafo": 1923,
      "migliore": 1924,
      "abba": 1925,
      "##ph": 1926,
      "riguarda": 1927,
      "real": 1928,
      "notte": 1929,
      "zona": 1930,
      "membro": 1931,
      "##interno": 1932,
      "##7,": 1933,
      "dispiace": 1934,
      "obietti": 1935,
      "##mica": 1936,
      "€": 1937,
      "esc": 1938,
      "##dati": 1939,
      "mare": 1940,
      "ragione": 1941,
      "##more": 1942,
      "maggior": 1943,
      "differ": 1944,
      "titolo": 1945,
      "##uncia": 1946,
      "formazione": 1947,
      "compre": 1948,
      "##ttutto": 1949,
      "##5.": 1950,
      "ameri": 1951,
      "perf": 1952,
      "regione": 1953,
      "nuovi": 1954,
      "##ordina": 1955,
      "cultura": 1956,
      "die": 1957,
      "vicino": 1958,
      "##dri": 1959,
      "##len": 1960,
      "gennaio": 1961,
      "nord": 1962,
      "vera": 1963,
      "resta": 1964,
      "processo": 1965,
      "comunque": 1966,
      "governo": 1967,
      "camera": 1968,
      "dagli": 1969,
      "visi": 1970,
      "geo": 1971,
      "peri": 1972,
      "(2": 1973,
      "##ismo": 1974,
      "trovato": 1975,
      "##mm": 1976,
      "diverse": 1977,
      "##ft": 1978,
      "##4.": 1979,
      "sicuro": 1980,
      "diritti": 1981,
      "minis": 1982,
      "settembre": 1983,
      "##alle": 1984,
      "roma": 1985,
      "linea": 1986,
      "procedu": 1987,
      "##ko": 1988,
      "is": 1989,
      "scusa": 1990,
      "avrebbe": 1991,
      "dimo": 1992,
      "proba": 1993,
      "gioco": 1994,
      "video": 1995,
      "senso": 1996,
      "##rati": 1997,
      "ecc": 1998,
      "##gazione": 1999,
      "cinque": 2000,
      "relativa": 2001,
      "##don": 2002,
      "196": 2003,
      "basta": 2004,
      "##uma": 2005,
      "##hai": 2006,
      "##gne": 2007,
      "furono": 2008,
      "preso": 2009,
      "usci": 2010,
      "profession": 2011,
      "##gis": 2012,
      "ruolo": 2013,
      "descri": 2014,
      "##rd": 2015,
      "preno": 2016,
      "donne": 2017,
      "##6.": 2018,
      "##mba": 2019,
      "ener": 2020,
      "dif": 2021,
      "##lano": 2022,
      "&": 2023,
      "##lie": 2024,
      "gente": 2025,
      "##it": 2026,
      "gro": 2027,
      "alb": 2028,
      "##torno": 2029,
      "ada": 2030,
      "rico": 2031,
      "trattato": 2032,
      "lingua": 2033,
      "almeno": 2034,
      "##veni": 2035,
      "##tenti": 2036,
      "##poste": 2037,
      "##vati": 2038,
      "partire": 2039,
      "utili": 2040,
      "##net": 2041,
      "##mania": 2042,
      "soprattutto": 2043,
      "corte": 2044,
      "crea": 2045,
      "confor": 2046,
      "nego": 2047,
      "prov": 2048,
      "sera": 2049,
      "sola": 2050,
      "##30": 2051,
      "(\"": 2052,
      "lettera": 2053,
      "porto": 2054,
      "bor": 2055,
      "resi": 2056,
      "collega": 2057,
      "##tar": 2058,
      "##50": 2059,
      "segre": 2060,
      "cuore": 2061,
      "spiri": 2062,
      "##ora": 2063,
      "nulla": 2064,
      "siete": 2065,
      "bilan": 2066,
      "riusci": 2067,
      "segna": 2068,
      "##minato": 2069,
      "effet": 2070,
      "impo": 2071,
      "##media": 2072,
      "##isco": 2073,
      "vio": 2074,
      "alber": 2075,
      "##lar": 2076,
      "amministra": 2077,
      "visita": 2078,
      "##dici": 2079,
      "marzo": 2080,
      "pass": 2081,
      "##lati": 2082,
      "##gliere": 2083,
      "risultati": 2084,
      "diven": 2085,
      "##bbra": 2086,
      "pazi": 2087,
      "##7.": 2088,
      "associa": 2089,
      "##dy": 2090,
      "rif": 2091,
      "nuove": 2092,
      "macchina": 2093,
      "##nza": 2094,
      "saranno": 2095,
      "meta": 2096,
      "nazionali": 2097,
      "volu": 2098,
      "genere": 2099,
      "repubb": 2100,
      "##vani": 2101,
      "tipi": 2102,
      "contrib": 2103,
      "imprese": 2104,
      "interessa": 2105,
      "ogg": 2106,
      "verifica": 2107,
      "principale": 2108,
      "##8.": 2109,
      "molte": 2110,
      "amici": 2111,
      "##cer": 2112,
      "##1.": 2113,
      "moglie": 2114,
      "mamma": 2115,
      "novembre": 2116,
      "##versa": 2117,
      "res": 2118,
      "ragazzi": 2119,
      "costrui": 2120,
      "##turo": 2121,
      "##tuale": 2122,
      "vorrei": 2123,
      "esi": 2124,
      "paga": 2125,
      "##ork": 2126,
      "##tuto": 2127,
      "##ionale": 2128,
      "comin": 2129,
      "sara": 2130,
      "mas": 2131,
      "##ttori": 2132,
      "##tture": 2133,
      "sf": 2134,
      "us": 2135,
      "signora": 2136,
      "##mare": 2137,
      "avre": 2138,
      "esclu": 2139,
      "fanta": 2140,
      "##den": 2141,
      "gratu": 2142,
      "glo": 2143,
      "confron": 2144,
      "##can": 2145,
      "dimen": 2146,
      "squadra": 2147,
      "##hn": 2148,
      "##minare": 2149,
      "manten": 2150,
      "affi": 2151,
      "##trimon": 2152,
      "##ide": 2153,
      "##rale": 2154,
      "##ccupazione": 2155,
      "concer": 2156,
      "vostra": 2157,
      "vai": 2158,
      "ka": 2159,
      "punti": 2160,
      "progetti": 2161,
      "accetta": 2162,
      "##iscono": 2163,
      "misura": 2164,
      "simi": 2165,
      "##bbli": 2166,
      "compi": 2167,
      "dovuto": 2168,
      "giusti": 2169,
      "investi": 2170,
      "rapi": 2171,
      "feli": 2172,
      "ricev": 2173,
      "100": 2174,
      "are": 2175,
      "##ultima": 2176,
      "iso": 2177,
      "pubblico": 2178,
      "ottobre": 2179,
      "##vamo": 2180,
      "##lto": 2181,
      "##cle": 2182,
      "eli": 2183,
      "corri": 2184,
      "deci": 2185,
      "specie": 2186,
      "##lata": 2187,
      "diffici": 2188,
      "invi": 2189,
      "domanda": 2190,
      "##eti": 2191,
      "spie": 2192,
      "prova": 2193,
      "francese": 2194,
      "##use": 2195,
      "##auto": 2196,
      "dentro": 2197,
      "raff": 2198,
      "finale": 2199,
      "##mpagna": 2200,
      "sede": 2201,
      "mezzo": 2202,
      "settimana": 2203,
      "collabo": 2204,
      "italiano": 2205,
      "scuola": 2206,
      "provin": 2207,
      "figli": 2208,
      "dare": 2209,
      "##duto": 2210,
      "riti": 2211,
      "##ler": 2212,
      "bella": 2213,
      "##rin": 2214,
      "tuoi": 2215,
      "terre": 2216,
      "azi": 2217,
      "prezzi": 2218,
      "##esp": 2219,
      "valore": 2220,
      "he": 2221,
      "mondiale": 2222,
      "spazio": 2223,
      "compet": 2224,
      "cura": 2225,
      "continua": 2226,
      "##europa": 2227,
      "civi": 2228,
      "offre": 2229,
      "##tate": 2230,
      "telef": 2231,
      "##tò": 2232,
      "gestione": 2233,
      "pon": 2234,
      "sare": 2235,
      "circo": 2236,
      "sele": 2237,
      "##cche": 2238,
      "luce": 2239,
      "industri": 2240,
      "note": 2241,
      "quadro": 2242,
      "##art": 2243,
      "##bbraio": 2244,
      "primi": 2245,
      "cast": 2246,
      "impa": 2247,
      "conosci": 2248,
      "ir": 2249,
      "##pia": 2250,
      "sh": 2251,
      "guida": 2252,
      "wi": 2253,
      "giovani": 2254,
      "##ultimo": 2255,
      "##nova": 2256,
      "ragazza": 2257,
      "cate": 2258,
      "prego": 2259,
      "funziona": 2260,
      "1,": 2261,
      "viaggio": 2262,
      "##9.": 2263,
      "propria": 2264,
      "ospi": 2265,
      "##arci": 2266,
      "##cor": 2267,
      "inca": 2268,
      "ur": 2269,
      "trov": 2270,
      "egli": 2271,
      "febbraio": 2272,
      "camere": 2273,
      "distri": 2274,
      "asse": 2275,
      "ascolta": 2276,
      "legge": 2277,
      "caratteris": 2278,
      "cooperazione": 2279,
      "aiuto": 2280,
      "sve": 2281,
      "##rò": 2282,
      "passato": 2283,
      "piccolo": 2284,
      "##rina": 2285,
      "soldi": 2286,
      "sba": 2287,
      "situato": 2288,
      "##10": 2289,
      "centrale": 2290,
      "abitanti": 2291,
      "##ori": 2292,
      "economica": 2293,
      "##zzato": 2294,
      "francia": 2295,
      "repubblica": 2296,
      "op": 2297,
      "consul": 2298,
      "23": 2299,
      "##armi": 2300,
      "nessun": 2301,
      "##mette": 2302,
      "##dizione": 2303,
      "ulter": 2304,
      "possa": 2305,
      "##vio": 2306,
      "##tente": 2307,
      "##ddis": 2308,
      "*": 2309,
      "quo": 2310,
      "blo": 2311,
      "bio": 2312,
      "ju": 2313,
      "##spe": 2314,
      "194": 2315,
      "atta": 2316,
      "demo": 2317,
      "##tanto": 2318,
      "##ica": 2319,
      "accesso": 2320,
      "richiesta": 2321,
      "papa": 2322,
      "essa": 2323,
      "serve": 2324,
      "strate": 2325,
      "ester": 2326,
      "protezione": 2327,
      "agrico": 2328,
      "##cente": 2329,
      "basa": 2330,
      "formu": 2331,
      "##acqua": 2332,
      "rive": 2333,
      "nonché": 2334,
      "promo": 2335,
      "aprile": 2336,
      "##smo": 2337,
      "meto": 2338,
      "est": 2339,
      "rima": 2340,
      "essi": 2341,
      "##ficio": 2342,
      "personale": 2343,
      "##lando": 2344,
      "##rismo": 2345,
      "coin": 2346,
      "studi": 2347,
      "gesù": 2348,
      "libro": 2349,
      "sensi": 2350,
      "fratello": 2351,
      "##tana": 2352,
      "stare": 2353,
      "questione": 2354,
      "liber": 2355,
      "proprie": 2356,
      "richie": 2357,
      "muo": 2358,
      "mala": 2359,
      "##\")": 2360,
      "campion": 2361,
      "esperi": 2362,
      "eserci": 2363,
      "concor": 2364,
      "disponibile": 2365,
      "futuro": 2366,
      "##bri": 2367,
      "##minazione": 2368,
      "face": 2369,
      "pala": 2370,
      "risor": 2371,
      "==": 2372,
      "legis": 2373,
      "rila": 2374,
      "##volta": 2375,
      "territorio": 2376,
      "veni": 2377,
      "trattamento": 2378,
      "arre": 2379,
      "consegu": 2380,
      "##stin": 2381,
      "##lino": 2382,
      "casi": 2383,
      "pan": 2384,
      "rispon": 2385,
      "stel": 2386,
      "##ltanto": 2387,
      "##mio": 2388,
      "##ardi": 2389,
      "dimostra": 2390,
      "stanno": 2391,
      "##ffica": 2392,
      "##ada": 2393,
      "##tendo": 2394,
      "presta": 2395,
      "princi": 2396,
      "bro": 2397,
      "soltanto": 2398,
      "##les": 2399,
      "cristi": 2400,
      "avanti": 2401,
      "temp": 2402,
      "##rate": 2403,
      "pens": 2404,
      "##/9": 2405,
      "sce": 2406,
      "##lori": 2407,
      "versione": 2408,
      "sostitu": 2409,
      "##erop": 2410,
      "oppure": 2411,
      "31": 2412,
      "pur": 2413,
      "ale": 2414,
      "wil": 2415,
      "principali": 2416,
      "##ramente": 2417,
      "superiore": 2418,
      "polizia": 2419,
      "europa": 2420,
      "reli": 2421,
      "##gente": 2422,
      "disposizioni": 2423,
      "bambino": 2424,
      "comba": 2425,
      "acca": 2426,
      "rile": 2427,
      "##mico": 2428,
      "28": 2429,
      "catego": 2430,
      "preve": 2431,
      "ama": 2432,
      "##utare": 2433,
      "50": 2434,
      "bilancio": 2435,
      "trasferi": 2436,
      "##gon": 2437,
      "john": 2438,
      "parola": 2439,
      "##ati": 2440,
      "integra": 2441,
      "2.": 2442,
      "racc": 2443,
      "infer": 2444,
      "accordo": 2445,
      "##inizio": 2446,
      "fondo": 2447,
      "##damento": 2448,
      "##viso": 2449,
      "##licazione": 2450,
      "alta": 2451,
      "##vid": 2452,
      "conti": 2453,
      "comporta": 2454,
      "indica": 2455,
      "vene": 2456,
      "importanti": 2457,
      "piacere": 2458,
      "##unità": 2459,
      "##rano": 2460,
      "scopri": 2461,
      "sociali": 2462,
      "web": 2463,
      "fir": 2464,
      "maga": 2465,
      "##ny": 2466,
      "moda": 2467,
      "mese": 2468,
      "ingle": 2469,
      "cercando": 2470,
      "rete": 2471,
      "capito": 2472,
      "migliori": 2473,
      "realtà": 2474,
      "##ziale": 2475,
      "##ass": 2476,
      "ago": 2477,
      "risto": 2478,
      "disc": 2479,
      "##ware": 2480,
      "pratica": 2481,
      "##tur": 2482,
      "frequ": 2483,
      "scritto": 2484,
      "giro": 2485,
      "stiamo": 2486,
      "giochi": 2487,
      "affer": 2488,
      "accor": 2489,
      "lavori": 2490,
      "ragazzo": 2491,
      "mal": 2492,
      "fanno": 2493,
      "alto": 2494,
      "29": 2495,
      "yo": 2496,
      "##tando": 2497,
      "fronte": 2498,
      "posti": 2499,
      "affron": 2500,
      "osserva": 2501,
      "##mettere": 2502,
      "presto": 2503,
      "autorità": 2504,
      "artico": 2505,
      "cel": 2506,
      "27": 2507,
      "##ccasione": 2508,
      "archi": 2509,
      "##ffer": 2510,
      "##arte": 2511,
      "cristo": 2512,
      "##mentazione": 2513,
      "ultimi": 2514,
      "dipen": 2515,
      "teso": 2516,
      "##20": 2517,
      "testo": 2518,
      "##ol": 2519,
      "capacità": 2520,
      "riferimento": 2521,
      "##gnato": 2522,
      "##mati": 2523,
      "##arlo": 2524,
      "spia": 2525,
      "##ccato": 2526,
      "##vvi": 2527,
      "##wn": 2528,
      "fru": 2529,
      "##canza": 2530,
      "seguenti": 2531,
      "entro": 2532,
      "ab": 2533,
      "mangia": 2534,
      "##cy": 2535,
      "2,": 2536,
      "metri": 2537,
      "sosten": 2538,
      "abbastanza": 2539,
      "riman": 2540,
      "poiché": 2541,
      "fissa": 2542,
      "scelta": 2543,
      "je": 2544,
      "navi": 2545,
      "incontra": 2546,
      "##perto": 2547,
      "##ang": 2548,
      "parole": 2549,
      "##gano": 2550,
      "figlia": 2551,
      "##rello": 2552,
      "##lti": 2553,
      "##ya": 2554,
      "ferro": 2555,
      "##durre": 2556,
      "animali": 2557,
      "dimenti": 2558,
      "pesca": 2559,
      "disponibilità": 2560,
      "rifi": 2561,
      "##rla": 2562,
      "ottenere": 2563,
      "avevo": 2564,
      "##vate": 2565,
      "obbli": 2566,
      "voglia": 2567,
      "pace": 2568,
      "né": 2569,
      "programmi": 2570,
      "##uale": 2571,
      "##nato": 2572,
      "sistemi": 2573,
      "##gioni": 2574,
      "oli": 2575,
      "motivo": 2576,
      "moder": 2577,
      "##dì": 2578,
      "azioni": 2579,
      "esso": 2580,
      "invia": 2581,
      "26": 2582,
      "##11": 2583,
      "precedente": 2584,
      "popolazione": 2585,
      "##ambi": 2586,
      "pol": 2587,
      "##ley": 2588,
      "##80": 2589,
      "sov": 2590,
      "##mbe": 2591,
      "##rci": 2592,
      "bagno": 2593,
      "europee": 2594,
      "soggior": 2595,
      "muse": 2596,
      "faccio": 2597,
      "comincia": 2598,
      "sosp": 2599,
      "identi": 2600,
      "##mentari": 2601,
      "pubblicato": 2602,
      "acqua": 2603,
      "##ende": 2604,
      "trasporto": 2605,
      "dor": 2606,
      "difficile": 2607,
      "!": 2608,
      "sentito": 2609,
      "##ser": 2610,
      "##ggiare": 2611,
      "##resso": 2612,
      "raccon": 2613,
      "morto": 2614,
      "soddis": 2615,
      "##unica": 2616,
      "rapporto": 2617,
      "sangue": 2618,
      "cava": 2619,
      "##applicazione": 2620,
      "risorse": 2621,
      "figu": 2622,
      "##ambito": 2623,
      "fem": 2624,
      "##mite": 2625,
      "probabilmente": 2626,
      "movi": 2627,
      "ecce": 2628,
      "##ir": 2629,
      "##tezza": 2630,
      "eventi": 2631,
      "economico": 2632,
      "equi": 2633,
      "riconosci": 2634,
      "##unto": 2635,
      "##uter": 2636,
      "piccola": 2637,
      "terzo": 2638,
      "##ficato": 2639,
      "##tino": 2640,
      "cittadini": 2641,
      "pian": 2642,
      "pagina": 2643,
      "##ker": 2644,
      "##ccup": 2645,
      "intro": 2646,
      "##ssere": 2647,
      "##genza": 2648,
      "##talia": 2649,
      "lì": 2650,
      "prom": 2651,
      "costi": 2652,
      "amp": 2653,
      "germania": 2654,
      "presenti": 2655,
      "gioca": 2656,
      "deri": 2657,
      "tenta": 2658,
      "valutazione": 2659,
      "aiuti": 2660,
      "occupa": 2661,
      "politiche": 2662,
      "uso": 2663,
      "ries": 2664,
      "lar": 2665,
      "comunicazione": 2666,
      "##bina": 2667,
      "volevo": 2668,
      "##....": 2669,
      "##visi": 2670,
      "+": 2671,
      "riten": 2672,
      "norme": 2673,
      "offerte": 2674,
      "dar": 2675,
      "idea": 2676,
      "avven": 2677,
      "origina": 2678,
      "##segui": 2679,
      "cucina": 2680,
      "vanta": 2681,
      "##dotto": 2682,
      "pericolo": 2683,
      "fabb": 2684,
      "clienti": 2685,
      "sogg": 2686,
      "##versità": 2687,
      "necessi": 2688,
      "presenza": 2689,
      "##amente": 2690,
      "##data": 2691,
      "vedi": 2692,
      "##trimonio": 2693,
      "##logo": 2694,
      "locali": 2695,
      "vendita": 2696,
      "ciasc": 2697,
      "venire": 2698,
      "parere": 2699,
      "##onia": 2700,
      "potere": 2701,
      "piedi": 2702,
      "ep": 2703,
      "##venzione": 2704,
      "##formazione": 2705,
      "##op": 2706,
      "chiamato": 2707,
      "rica": 2708,
      "voce": 2709,
      "disa": 2710,
      "pochi": 2711,
      "195": 2712,
      "costruzione": 2713,
      "##hotel": 2714,
      "santa": 2715,
      "speciali": 2716,
      "##anche": 2717,
      "schi": 2718,
      "sub": 2719,
      "fort": 2720,
      "##arono": 2721,
      "##erai": 2722,
      "giudi": 2723,
      "##ume": 2724,
      "profon": 2725,
      "vieni": 2726,
      "##raggio": 2727,
      "commi": 2728,
      "carta": 2729,
      "##importa": 2730,
      "##ordine": 2731,
      "soluzione": 2732,
      "##mail": 2733,
      "##im": 2734,
      "direttamente": 2735,
      "##lazioni": 2736,
      "pertanto": 2737,
      "obiettivi": 2738,
      "##dine": 2739,
      "##cha": 2740,
      "speciale": 2741,
      "nono": 2742,
      "colore": 2743,
      "illu": 2744,
      "esist": 2745,
      "##ttor": 2746,
      "giapp": 2747,
      "ucciso": 2748,
      "maria": 2749,
      "concentra": 2750,
      "nostre": 2751,
      "monta": 2752,
      "tesoro": 2753,
      "conserva": 2754,
      "riporta": 2755,
      "spetta": 2756,
      "interpre": 2757,
      "tornare": 2758,
      "relativo": 2759,
      "cari": 2760,
      "fase": 2761,
      "risposta": 2762,
      "##onorevole": 2763,
      "provincia": 2764,
      "clu": 2765,
      "##mità": 2766,
      "bello": 2767,
      "aere": 2768,
      "dolla": 2769,
      "occhi": 2770,
      "internet": 2771,
      "regi": 2772,
      "fondamen": 2773,
      "vitto": 2774,
      "scher": 2775,
      "assolu": 2776,
      "##dità": 2777,
      "interno": 2778,
      "##onica": 2779,
      "##tazioni": 2780,
      "##».": 2781,
      "vede": 2782,
      "##non": 2783,
      "sala": 2784,
      "za": 2785,
      "##40": 2786,
      "opport": 2787,
      "settori": 2788,
      "##gine": 2789,
      "##isola": 2790,
      "stazione": 2791,
      "preferi": 2792,
      "convin": 2793,
      "##uri": 2794,
      "sfor": 2795,
      "traduzione": 2796,
      "tru": 2797,
      "##dito": 2798,
      "##ardia": 2799,
      "stile": 2800,
      "accu": 2801,
      "riguardo": 2802,
      "emi": 2803,
      "##zzata": 2804,
      "distru": 2805,
      "scopo": 2806,
      "modello": 2807,
      "##ja": 2808,
      "%": 2809,
      "sho": 2810,
      "##metri": 2811,
      "##coltà": 2812,
      "poten": 2813,
      "profi": 2814,
      "##mata": 2815,
      "termini": 2816,
      "ufficiale": 2817,
      "##verti": 2818,
      "superfici": 2819,
      "stampa": 2820,
      "##the": 2821,
      "appare": 2822,
      "breve": 2823,
      "ah": 2824,
      "elementi": 2825,
      "##allo": 2826,
      "completamente": 2827,
      "eh": 2828,
      "micro": 2829,
      "##duta": 2830,
      "locale": 2831,
      "indo": 2832,
      "##posito": 2833,
      "gruppi": 2834,
      "rischio": 2835,
      "wa": 2836,
      "##dd": 2837,
      "##ltura": 2838,
      "agosto": 2839,
      "conne": 2840,
      "avvi": 2841,
      "varie": 2842,
      "disponibili": 2843,
      "soste": 2844,
      "##gge": 2845,
      "pazienti": 2846,
      "tramite": 2847,
      "spor": 2848,
      "chiesto": 2849,
      "pronto": 2850,
      "##aria": 2851,
      "##iti": 2852,
      "svilupp": 2853,
      "##bur": 2854,
      "##genti": 2855,
      "aspetti": 2856,
      "crede": 2857,
      "okay": 2858,
      "insta": 2859,
      "giuri": 2860,
      "portato": 2861,
      "relative": 2862,
      "##ressi": 2863,
      "mino": 2864,
      "proprietà": 2865,
      "procedura": 2866,
      "##ambiente": 2867,
      "teo": 2868,
      "tito": 2869,
      "succede": 2870,
      "facciamo": 2871,
      "##rere": 2872,
      "lotta": 2873,
      "##cin": 2874,
      "ang": 2875,
      "tardi": 2876,
      "entrambi": 2877,
      "messo": 2878,
      "##by": 2879,
      "radio": 2880,
      "corrispon": 2881,
      "##terna": 2882,
      "caratteri": 2883,
      "carri": 2884,
      "##vidu": 2885,
      "##cola": 2886,
      "nonostante": 2887,
      "##tis": 2888,
      "infine": 2889,
      "cha": 2890,
      "inglese": 2891,
      "sper": 2892,
      "carrello": 2893,
      "##posizione": 2894,
      "##vie": 2895,
      "volon": 2896,
      "##tevi": 2897,
      "relazioni": 2898,
      "##zzare": 2899,
      "regioni": 2900,
      "opere": 2901,
      "eri": 2902,
      "sugg": 2903,
      "strumenti": 2904,
      "garantire": 2905,
      "geni": 2906,
      "piani": 2907,
      "unico": 2908,
      "codice": 2909,
      "caratteristiche": 2910,
      "legno": 2911,
      "##tina": 2912,
      "40": 2913,
      "##od": 2914,
      "scar": 2915,
      "##olo": 2916,
      "manif": 2917,
      "creare": 2918,
      "articoli": 2919,
      "##grafia": 2920,
      "colpi": 2921,
      "effettua": 2922,
      "##shi": 2923,
      "bigli": 2924,
      "tv": 2925,
      "##stiche": 2926,
      "##ciò": 2927,
      "elettri": 2928,
      "##alisi": 2929,
      "##ttosto": 2930,
      "sostegno": 2931,
      "pensavo": 2932,
      "applicazione": 2933,
      "##ggere": 2934,
      "mone": 2935,
      "massimo": 2936,
      "?": 2937,
      "##tuali": 2938,
      "sore": 2939,
      "ton": 2940,
      "salute": 2941,
      "giovane": 2942,
      "quantità": 2943,
      "piuttosto": 2944,
      "##gliato": 2945,
      "puli": 2946,
      "comunitario": 2947,
      "##teri": 2948,
      "costo": 2949,
      "effica": 2950,
      "##eserci": 2951,
      "tea": 2952,
      "##dan": 2953,
      "##poca": 2954,
      "online": 2955,
      "stand": 2956,
      "nem": 2957,
      "##wi": 2958,
      "inseri": 2959,
      "##terà": 2960,
      "##ssia": 2961,
      "paura": 2962,
      "son": 2963,
      "canz": 2964,
      "monte": 2965,
      "club": 2966,
      "nota": 2967,
      "##60": 2968,
      "chiu": 2969,
      "##bra": 2970,
      "quei": 2971,
      "##mai": 2972,
      "memo": 2973,
      "pure": 2974,
      "tema": 2975,
      "sche": 2976,
      "##dale": 2977,
      "##car": 2978,
      "mina": 2979,
      "##area": 2980,
      "giun": 2981,
      "prende": 2982,
      "raggiungere": 2983,
      "0,": 2984,
      "mettere": 2985,
      "multi": 2986,
      "dra": 2987,
      "th": 2988,
      "raccoman": 2989,
      "##eroporto": 2990,
      "certi": 2991,
      "lista": 2992,
      "##mes": 2993,
      "vivere": 2994,
      "##vera": 2995,
      "##/8": 2996,
      "3.": 2997,
      "medio": 2998,
      "fatta": 2999,
      "##stanze": 3000,
      "##indu": 3001,
      "vali": 3002,
      "compon": 3003,
      "contatto": 3004,
      "pie": 3005,
      "commercio": 3006,
      "##cla": 3007,
      "##landa": 3008,
      "pot": 3009,
      "sfi": 3010,
      "aggior": 3011,
      "campionato": 3012,
      "trib": 3013,
      "italiana": 3014,
      "vedo": 3015,
      "attenzione": 3016,
      "design": 3017,
      "##wa": 3018,
      "##renza": 3019,
      "turi": 3020,
      "treno": 3021,
      "facile": 3022,
      "dietro": 3023,
      "nemmeno": 3024,
      "fede": 3025,
      "##ttina": 3026,
      "malatti": 3027,
      "##stretto": 3028,
      "nessuna": 3029,
      "erro": 3030,
      "partecip": 3031,
      "milano": 3032,
      "messaggio": 3033,
      "precis": 3034,
      "sezione": 3035,
      "torn": 3036,
      "atte": 3037,
      "crescita": 3038,
      "##mme": 3039,
      "bianco": 3040,
      "coper": 3041,
      "193": 3042,
      "##ms": 3043,
      "dollari": 3044,
      "fatti": 3045,
      "controlla": 3046,
      "avevano": 3047,
      "resto": 3048,
      "zo": 3049,
      "dici": 3050,
      "quell": 3051,
      "cine": 3052,
      "batta": 3053,
      "ordina": 3054,
      "spagna": 3055,
      "farma": 3056,
      "giovanni": 3057,
      "specia": 3058,
      "soft": 3059,
      "intra": 3060,
      "tempi": 3061,
      "•": 3062,
      "##ment": 3063,
      "necessità": 3064,
      "af": 3065,
      "belli": 3066,
      "(19": 3067,
      "”.": 3068,
      "avrei": 3069,
      "vado": 3070,
      "proposte": 3071,
      "##uito": 3072,
      "##lizzazione": 3073,
      "banca": 3074,
      "visu": 3075,
      "unito": 3076,
      "tecnica": 3077,
      "formula": 3078,
      "lato": 3079,
      "dico": 3080,
      "spirito": 3081,
      "riguard": 3082,
      "esclusi": 3083,
      "4.": 3084,
      "immo": 3085,
      "lavorare": 3086,
      "york": 3087,
      "ordine": 3088,
      "mente": 3089,
      "##ky": 3090,
      "usare": 3091,
      "##ed": 3092,
      "metà": 3093,
      "giustizia": 3094,
      "##bato": 3095,
      "capire": 3096,
      "individu": 3097,
      "##tuazione": 3098,
      "mie": 3099,
      "coinvol": 3100,
      "##12": 3101,
      "beni": 3102,
      "##fficiente": 3103,
      "recen": 3104,
      "potuto": 3105,
      "davanti": 3106,
      "mecc": 3107,
      "ricevuto": 3108,
      "costa": 3109,
      "oggetto": 3110,
      "vesti": 3111,
      "consuma": 3112,
      "felice": 3113,
      "veder": 3114,
      "peso": 3115,
      "##llare": 3116,
      "quar": 3117,
      "anch": 3118,
      "materiale": 3119,
      "##dimento": 3120,
      "impie": 3121,
      "interess": 3122,
      "famo": 3123,
      "democra": 3124,
      "##inte": 3125,
      "marito": 3126,
      "medicina": 3127,
      "soggiorno": 3128,
      "naturale": 3129,
      "indipen": 3130,
      "deli": 3131,
      "entrare": 3132,
      "ringra": 3133,
      "lea": 3134,
      "##lib": 3135,
      "stessi": 3136,
      "##ameri": 3137,
      "cele": 3138,
      "andre": 3139,
      "##gica": 3140,
      "contatta": 3141,
      "cioè": 3142,
      "settimane": 3143,
      "scor": 3144,
      "##enco": 3145,
      "competi": 3146,
      "collo": 3147,
      "passo": 3148,
      "disposizione": 3149,
      "sepa": 3150,
      "sole": 3151,
      "##isci": 3152,
      "home": 3153,
      "telefono": 3154,
      "sposa": 3155,
      "domani": 3156,
      "##mere": 3157,
      "dise": 3158,
      "har": 3159,
      "andata": 3160,
      "varia": 3161,
      "perso": 3162,
      "##we": 3163,
      "federa": 3164,
      "caccia": 3165,
      "##ssimi": 3166,
      "capisco": 3167,
      "##enziale": 3168,
      "canc": 3169,
      "vecchio": 3170,
      "diretto": 3171,
      "belle": 3172,
      "prender": 3173,
      "blu": 3174,
      "dieci": 3175,
      "vitti": 3176,
      "immedia": 3177,
      "estre": 3178,
      "massima": 3179,
      "stava": 3180,
      "##anze": 3181,
      "massa": 3182,
      "superficie": 3183,
      "unità": 3184,
      "##inf": 3185,
      "descrizione": 3186,
      "deciso": 3187,
      "scamb": 3188,
      "presti": 3189,
      "pubblici": 3190,
      "gri": 3191,
      "##cal": 3192,
      "##oro": 3193,
      "glob": 3194,
      "affa": 3195,
      "proveni": 3196,
      "pelle": 3197,
      "##idea": 3198,
      "##alb": 3199,
      "attualmente": 3200,
      "##xi": 3201,
      "andato": 3202,
      "strumento": 3203,
      "scena": 3204,
      "##eranno": 3205,
      "funzione": 3206,
      "recu": 3207,
      "domande": 3208,
      "dol": 3209,
      "sani": 3210,
      "europei": 3211,
      "sconfi": 3212,
      "##zzando": 3213,
      "contempo": 3214,
      "risultato": 3215,
      "pensare": 3216,
      "##tribu": 3217,
      "classifica": 3218,
      "char": 3219,
      "amore": 3220,
      "##into": 3221,
      "merito": 3222,
      "##eso": 3223,
      "alberghi": 3224,
      "spese": 3225,
      "##ers": 3226,
      "complessi": 3227,
      "##organizza": 3228,
      "basso": 3229,
      "direzione": 3230,
      "roman": 3231,
      "##sf": 3232,
      "disco": 3233,
      "materiali": 3234,
      "occ": 3235,
      "lavoratori": 3236,
      "gara": 3237,
      "ko": 3238,
      "software": 3239,
      "immagini": 3240,
      "##attività": 3241,
      "cas": 3242,
      "supera": 3243,
      "##toria": 3244,
      "diffi": 3245,
      "modalità": 3246,
      "interro": 3247,
      "salve": 3248,
      "consider": 3249,
      "permette": 3250,
      "confe": 3251,
      "affari": 3252,
      "##erti": 3253,
      "assa": 3254,
      "pensato": 3255,
      "part": 3256,
      "##clo": 3257,
      "giornata": 3258,
      "festa": 3259,
      "preoccupa": 3260,
      "##cli": 3261,
      "portare": 3262,
      "##lea": 3263,
      "verità": 3264,
      "##gati": 3265,
      "192": 3266,
      "progetta": 3267,
      "##----": 3268,
      "album": 3269,
      "fed": 3270,
      "creazione": 3271,
      "##tamenti": 3272,
      "##chè": 3273,
      "palazzo": 3274,
      "apparten": 3275,
      "veramente": 3276,
      "stanza": 3277,
      "##cani": 3278,
      "##tela": 3279,
      "dimensioni": 3280,
      "##ffa": 3281,
      "durata": 3282,
      "numerosi": 3283,
      "dunque": 3284,
      "reale": 3285,
      "##lora": 3286,
      "##nero": 3287,
      "venezia": 3288,
      "orienta": 3289,
      "##ws": 3290,
      "coordina": 3291,
      "libero": 3292,
      "appo": 3293,
      "neanche": 3294,
      "migliorare": 3295,
      "lasciato": 3296,
      "seguente": 3297,
      "evitare": 3298,
      "parlato": 3299,
      "visualizza": 3300,
      "santo": 3301,
      "vediamo": 3302,
      "valori": 3303,
      "fal": 3304,
      "vir": 3305,
      "indietro": 3306,
      "fuoco": 3307,
      "##italia": 3308,
      "agg": 3309,
      "mm": 3310,
      "classe": 3311,
      "carriera": 3312,
      "##int": 3313,
      "##tante": 3314,
      "agri": 3315,
      "##mis": 3316,
      "sali": 3317,
      "nero": 3318,
      "ted": 3319,
      "recente": 3320,
      "##id": 3321,
      "##deva": 3322,
      "##industria": 3323,
      "consenti": 3324,
      "pagamento": 3325,
      "##cata": 3326,
      "libertà": 3327,
      "##nale": 3328,
      "##ins": 3329,
      "riserva": 3330,
      "regime": 3331,
      "##esione": 3332,
      "dettagli": 3333,
      "scienti": 3334,
      "rifle": 3335,
      "diavolo": 3336,
      "appartamento": 3337,
      "finito": 3338,
      "uscire": 3339,
      "prosp": 3340,
      "colpa": 3341,
      "principio": 3342,
      "piena": 3343,
      "tour": 3344,
      "et": 3345,
      "proto": 3346,
      "##ssibile": 3347,
      "tue": 3348,
      "##90": 3349,
      "personali": 3350,
      "risa": 3351,
      "esiste": 3352,
      "##voluzione": 3353,
      "##rizzo": 3354,
      "3,": 3355,
      "##lici": 3356,
      "zone": 3357,
      "occasione": 3358,
      "quarti": 3359,
      "stavo": 3360,
      "computer": 3361,
      "successivamente": 3362,
      "##ttivo": 3363,
      "##mone": 3364,
      "spagno": 3365,
      "##enso": 3366,
      "colon": 3367,
      "##eremo": 3368,
      "leggi": 3369,
      "##-0": 3370,
      "fri": 3371,
      "mona": 3372,
      "raffor": 3373,
      "medico": 3374,
      "cercare": 3375,
      "##posti": 3376,
      "##venta": 3377,
      "##nia": 3378,
      "passare": 3379,
      "cellu": 3380,
      "carica": 3381,
      "caff": 3382,
      "red": 3383,
      "vei": 3384,
      "inci": 3385,
      "##metti": 3386,
      "wo": 3387,
      "##larmente": 3388,
      "risoluzione": 3389,
      "case": 3390,
      "incre": 3391,
      "tedes": 3392,
      "mediante": 3393,
      "##cre": 3394,
      "intera": 3395,
      "maggiori": 3396,
      "##etra": 3397,
      "giornali": 3398,
      "dicendo": 3399,
      "sost": 3400,
      "##tch": 3401,
      "##gata": 3402,
      "##damente": 3403,
      "lunga": 3404,
      "##dero": 3405,
      "fortuna": 3406,
      "xi": 3407,
      "2007": 3408,
      "hi": 3409,
      "##ting": 3410,
      "partecipazione": 3411,
      "##umo": 3412,
      "iscri": 3413,
      "fan": 3414,
      "##logie": 3415,
      "##16": 3416,
      "abband": 3417,
      "##tec": 3418,
      "##ruzione": 3419,
      "##econo": 3420,
      "sy": 3421,
      "##dina": 3422,
      "##amore": 3423,
      "##as": 3424,
      "parco": 3425,
      "##70": 3426,
      "##ppiamo": 3427,
      "genitori": 3428,
      "usato": 3429,
      "fred": 3430,
      "##mamente": 3431,
      "##rne": 3432,
      "internazionali": 3433,
      "fondi": 3434,
      "geova": 3435,
      "verde": 3436,
      "posta": 3437,
      "jack": 3438,
      "promuo": 3439,
      "##glior": 3440,
      "documenti": 3441,
      "diparti": 3442,
      "popolo": 3443,
      "##tone": 3444,
      "piazza": 3445,
      "scarica": 3446,
      "piccole": 3447,
      "##32": 3448,
      "dir": 3449,
      "##temi": 3450,
      "museo": 3451,
      "##ls": 3452,
      "cata": 3453,
      "##ttuale": 3454,
      "livelli": 3455,
      "##up": 3456,
      "magari": 3457,
      "##razioni": 3458,
      "responsabilità": 3459,
      "condivi": 3460,
      "##unico": 3461,
      "ana": 3462,
      "sugli": 3463,
      "mappa": 3464,
      "win": 3465,
      "distanza": 3466,
      "diventare": 3467,
      "piccoli": 3468,
      "storico": 3469,
      "standard": 3470,
      "##organizzazione": 3471,
      "##ssemb": 3472,
      "ulteriori": 3473,
      "ristorante": 3474,
      "digi": 3475,
      "##tarie": 3476,
      "##uire": 3477,
      "dottore": 3478,
      "filo": 3479,
      "sb": 3480,
      "episo": 3481,
      "miglia": 3482,
      "organi": 3483,
      "potete": 3484,
      "ospiti": 3485,
      "##gore": 3486,
      "carattere": 3487,
      "salva": 3488,
      "dedica": 3489,
      "bla": 3490,
      "sottoline": 3491,
      "prime": 3492,
      "vivo": 3493,
      "ritro": 3494,
      "##biettivo": 3495,
      "##autori": 3496,
      "privato": 3497,
      "umani": 3498,
      "tren": 3499,
      "impian": 3500,
      "garan": 3501,
      "ormai": 3502,
      "premio": 3503,
      "dep": 3504,
      "##aiuto": 3505,
      "##ico": 3506,
      "professionale": 3507,
      "campagna": 3508,
      "##sera": 3509,
      "contenuto": 3510,
      "conosce": 3511,
      "immobili": 3512,
      "##ener": 3513,
      "morta": 3514,
      "##cale": 3515,
      "##3)": 3516,
      "##ung": 3517,
      "sappiamo": 3518,
      "##neo": 3519,
      "categoria": 3520,
      "perdere": 3521,
      "##uffi": 3522,
      "##umi": 3523,
      "regionale": 3524,
      "vive": 3525,
      "sentire": 3526,
      "##ct": 3527,
      "dovremmo": 3528,
      "disse": 3529,
      "inferiore": 3530,
      "conoscenza": 3531,
      "##ento": 3532,
      "##vista": 3533,
      "##vocato": 3534,
      "##alla": 3535,
      "intorno": 3536,
      "alcun": 3537,
      "annun": 3538,
      "##ciare": 3539,
      "stupi": 3540,
      "chiaro": 3541,
      "##matica": 3542,
      "informazione": 3543,
      "sesso": 3544,
      "capitale": 3545,
      "matrimonio": 3546,
      "reali": 3547,
      "basi": 3548,
      "migliora": 3549,
      "prove": 3550,
      "##ficare": 3551,
      "van": 3552,
      "bib": 3553,
      "##ua": 3554,
      "zi": 3555,
      "età": 3556,
      "fla": 3557,
      "ritorno": 3558,
      "fossi": 3559,
      "interesse": 3560,
      "##cciaio": 3561,
      "mandato": 3562,
      "miglior": 3563,
      "##derà": 3564,
      "ricorda": 3565,
      "»": 3566,
      "##ave": 3567,
      "dani": 3568,
      "attre": 3569,
      "studia": 3570,
      "famiglie": 3571,
      "##vale": 3572,
      "peggio": 3573,
      "aggiorna": 3574,
      "##dano": 3575,
      "##cuzione": 3576,
      "rivol": 3577,
      "metodo": 3578,
      "sorella": 3579,
      "##35": 3580,
      "singolo": 3581,
      "trasc": 3582,
      "potrebbero": 3583,
      "##unale": 3584,
      "ieri": 3585,
      "##cò": 3586,
      "civile": 3587,
      "##minata": 3588,
      "strutture": 3589,
      ";": 3590,
      "nucle": 3591,
      "permet": 3592,
      "##cino": 3593,
      "passe": 3594,
      "lunghe": 3595,
      "simile": 3596,
      "##cesi": 3597,
      "difficoltà": 3598,
      "even": 3599,
      "##scon": 3600,
      "stelle": 3601,
      "esten": 3602,
      "battaglia": 3603,
      "##rone": 3604,
      "combina": 3605,
      "onore": 3606,
      "##15": 3607,
      "##cento": 3608,
      "partito": 3609,
      "star": 3610,
      "##arla": 3611,
      "dovrei": 3612,
      "sess": 3613,
      "revisione": 3614,
      "missione": 3615,
      "trasporti": 3616,
      "semplicemente": 3617,
      "##onato": 3618,
      "relativi": 3619,
      "feri": 3620,
      "pap": 3621,
      "confronti": 3622,
      "##ps": 3623,
      "direttore": 3624,
      "commerciale": 3625,
      "utilizzare": 3626,
      "energia": 3627,
      "##ccid": 3628,
      "giard": 3629,
      "##.0": 3630,
      "movimento": 3631,
      "gh": 3632,
      "religio": 3633,
      "influ": 3634,
      "ragazze": 3635,
      "possibili": 3636,
      "collaborazione": 3637,
      "dovrebbero": 3638,
      "ripro": 3639,
      "cm": 3640,
      "##tola": 3641,
      "##archi": 3642,
      "distribu": 3643,
      "##obiettivo": 3644,
      "psi": 3645,
      "##scere": 3646,
      "fabbrica": 3647,
      "motore": 3648,
      "dormi": 3649,
      "tempera": 3650,
      "tab": 3651,
      "arrivare": 3652,
      "sap": 3653,
      "coloro": 3654,
      "veloce": 3655,
      "concorrenza": 3656,
      "capp": 3657,
      "fili": 3658,
      "cook": 3659,
      "esperienza": 3660,
      "deno": 3661,
      "bon": 3662,
      "spero": 3663,
      "forze": 3664,
      "elabo": 3665,
      "fiume": 3666,
      "precedenti": 3667,
      "##vina": 3668,
      "##gico": 3669,
      "chiamata": 3670,
      "partner": 3671,
      "##dire": 3672,
      "stron": 3673,
      "##usione": 3674,
      "adottato": 3675,
      "##catore": 3676,
      "##die": 3677,
      "fece": 3678,
      "tari": 3679,
      "venuto": 3680,
      "##iale": 3681,
      "velocità": 3682,
      "chiede": 3683,
      "spedizione": 3684,
      "##);": 3685,
      "svizz": 3686,
      "avvia": 3687,
      "zu": 3688,
      "##renze": 3689,
      "cielo": 3690,
      "castello": 3691,
      "60": 3692,
      "han": 3693,
      "paolo": 3694,
      "##ranza": 3695,
      "particolarmente": 3696,
      "esegui": 3697,
      "2000": 3698,
      "tess": 3699,
      "##sità": 3700,
      "ke": 3701,
      "##rutta": 3702,
      "trasforma": 3703,
      "passi": 3704,
      "utenti": 3705,
      "origine": 3706,
      "##vel": 3707,
      "accordi": 3708,
      "##genze": 3709,
      "rega": 3710,
      "aria": 3711,
      "dallo": 3712,
      "rispetti": 3713,
      "##trici": 3714,
      "aperto": 3715,
      "maschi": 3716,
      "azienda": 3717,
      "##impre": 3718,
      "##acce": 3719,
      "funzion": 3720,
      "mg": 3721,
      "##-19": 3722,
      "##ng": 3723,
      "tecnologia": 3724,
      "soddisfa": 3725,
      "responsabile": 3726,
      "verrà": 3727,
      "maes": 3728,
      "##nan": 3729,
      "##.000": 3730,
      "##nica": 3731,
      "gas": 3732,
      "utilizzato": 3733,
      "slo": 3734,
      "mono": 3735,
      "strategia": 3736,
      "candi": 3737,
      "emer": 3738,
      "crisi": 3739,
      "priori": 3740,
      "negozia": 3741,
      "ricordi": 3742,
      "pieno": 3743,
      "gol": 3744,
      "##und": 3745,
      "adatta": 3746,
      "esattamente": 3747,
      "capitolo": 3748,
      "geor": 3749,
      "aiutare": 3750,
      "esser": 3751,
      "sacco": 3752,
      "##ionali": 3753,
      "avanza": 3754,
      "vale": 3755,
      "appartamenti": 3756,
      "##fr": 3757,
      "piscina": 3758,
      "contratto": 3759,
      "it": 3760,
      "vesco": 3761,
      "forme": 3762,
      "sosteni": 3763,
      "forn": 3764,
      "tenere": 3765,
      "##terra": 3766,
      "2015": 3767,
      "aziende": 3768,
      "##/200": 3769,
      "##dotta": 3770,
      "2016": 3771,
      "terzi": 3772,
      "##ght": 3773,
      "vie": 3774,
      "risol": 3775,
      "##late": 3776,
      "prossimo": 3777,
      "parigi": 3778,
      "manu": 3779,
      "venti": 3780,
      "perfetta": 3781,
      "inizi": 3782,
      "stri": 3783,
      "sinistra": 3784,
      "caro": 3785,
      "giardino": 3786,
      "rafforza": 3787,
      "parlando": 3788,
      "successivo": 3789,
      "presentato": 3790,
      "fid": 3791,
      "sig": 3792,
      "colori": 3793,
      "##75": 3794,
      "##stici": 3795,
      "commissa": 3796,
      "dovresti": 3797,
      "patri": 3798,
      "dro": 3799,
      "##monia": 3800,
      "vacanza": 3801,
      "##pren": 3802,
      "là": 3803,
      "rende": 3804,
      "manifesta": 3805,
      "##tz": 3806,
      "istituzioni": 3807,
      "##dite": 3808,
      "##meri": 3809,
      "spiaggia": 3810,
      "divenne": 3811,
      "##rus": 3812,
      "vittoria": 3813,
      "##cana": 3814,
      "##tuni": 3815,
      "vino": 3816,
      "prendi": 3817,
      "ripre": 3818,
      "condu": 3819,
      "##desi": 3820,
      "90": 3821,
      "contesto": 3822,
      "ritor": 3823,
      "##ex": 3824,
      "merda": 3825,
      "##minio": 3826,
      "##alto": 3827,
      "desidera": 3828,
      "carlo": 3829,
      "adu": 3830,
      "pio": 3831,
      "riduzione": 3832,
      "parche": 3833,
      "##arma": 3834,
      "arriva": 3835,
      "simbo": 3836,
      "linee": 3837,
      "vanno": 3838,
      "##om": 3839,
      "militare": 3840,
      "sento": 3841,
      "famili": 3842,
      "##giu": 3843,
      "iii": 3844,
      "nave": 3845,
      "perfetto": 3846,
      "vostri": 3847,
      "##logico": 3848,
      "torre": 3849,
      "inso": 3850,
      "fornire": 3851,
      "morire": 3852,
      "##gnia": 3853,
      "##azi": 3854,
      "##scio": 3855,
      "##iona": 3856,
      "##università": 3857,
      "mercati": 3858,
      "ebbe": 3859,
      "dipartimento": 3860,
      "##gante": 3861,
      "##zzati": 3862,
      "##grafica": 3863,
      "fore": 3864,
      "##struttura": 3865,
      "sale": 3866,
      "ara": 3867,
      "investimenti": 3868,
      "aggiunto": 3869,
      "##ttive": 3870,
      "chiave": 3871,
      "##ufficio": 3872,
      "##inta": 3873,
      "##orno": 3874,
      "2010": 3875,
      "documento": 3876,
      "comunitaria": 3877,
      "dedi": 3878,
      "conquis": 3879,
      "sopp": 3880,
      "serio": 3881,
      "tanti": 3882,
      "supporto": 3883,
      "35": 3884,
      "##mor": 3885,
      "contiene": 3886,
      "innova": 3887,
      "oro": 3888,
      "##sì": 3889,
      "sopravvi": 3890,
      "bur": 3891,
      "voleva": 3892,
      "amo": 3893,
      "arriv": 3894,
      "occorre": 3895,
      "economici": 3896,
      "progressi": 3897,
      "conso": 3898,
      "mera": 3899,
      "##energia": 3900,
      "##sen": 3901,
      "gratis": 3902,
      "armi": 3903,
      "##45": 3904,
      "##ppio": 3905,
      "##'!": 3906,
      "adegua": 3907,
      "ripa": 3908,
      "##ham": 3909,
      "ottimo": 3910,
      "chiedere": 3911,
      "britan": 3912,
      "compagnia": 3913,
      "rea": 3914,
      "rosso": 3915,
      "unica": 3916,
      "generali": 3917,
      "##renti": 3918,
      "viol": 3919,
      "##isa": 3920,
      "2012": 3921,
      "regole": 3922,
      "como": 3923,
      "rendere": 3924,
      "##entali": 3925,
      "trovano": 3926,
      "##):": 3927,
      "ferrovia": 3928,
      "##luzioni": 3929,
      "hu": 3930,
      "posse": 3931,
      "batter": 3932,
      "catto": 3933,
      "raccomanda": 3934,
      "elettr": 3935,
      "##fre": 3936,
      "##erò": 3937,
      "sel": 3938,
      "##tagon": 3939,
      "##messa": 3940,
      "genti": 3941,
      "proposito": 3942,
      "som": 3943,
      "strani": 3944,
      "2014": 3945,
      "inti": 3946,
      "messi": 3947,
      "##pote": 3948,
      "##ismi": 3949,
      "maniera": 3950,
      "##dor": 3951,
      "ministro": 3952,
      "carb": 3953,
      "decisioni": 3954,
      "##tional": 3955,
      "reti": 3956,
      "##ak": 3957,
      "vogli": 3958,
      "que": 3959,
      "lasciare": 3960,
      "calcio": 3961,
      "mezzi": 3962,
      "vigore": 3963,
      "sé": 3964,
      "sfrutta": 3965,
      "lago": 3966,
      "##essere": 3967,
      "2005": 3968,
      "##tudine": 3969,
      "##rvi": 3970,
      "##85": 3971,
      "sposta": 3972,
      "femmini": 3973,
      "32": 3974,
      "difesa": 3975,
      "merci": 3976,
      "scoperto": 3977,
      "intende": 3978,
      "##samente": 3979,
      "stia": 3980,
      "politico": 3981,
      "fle": 3982,
      "mette": 3983,
      "solle": 3984,
      "##39": 3985,
      "potrei": 3986,
      "##zionata": 3987,
      "cibo": 3988,
      "capitano": 3989,
      "##epoca": 3990,
      "prefer": 3991,
      "##detto": 3992,
      "rimane": 3993,
      "congre": 3994,
      "2011": 3995,
      "perc": 3996,
      "prese": 3997,
      "nascon": 3998,
      "convenzione": 3999,
      "##ann": 4000,
      "=": 4001,
      "##veri": 4002,
      "operazioni": 4003,
      "##turismo": 4004,
      "##6)": 4005,
      "festi": 4006,
      "##telo": 4007,
      "distin": 4008,
      "prevede": 4009,
      "ricordo": 4010,
      "atto": 4011,
      "##mando": 4012,
      "differenza": 4013,
      "guada": 4014,
      "ran": 4015,
      "bassi": 4016,
      "perman": 4017,
      "commerciali": 4018,
      "cliente": 4019,
      "principi": 4020,
      "terza": 4021,
      "##gnare": 4022,
      "##bbi": 4023,
      "parli": 4024,
      "perchè": 4025,
      "pilo": 4026,
      "realizzazione": 4027,
      "##cole": 4028,
      "espri": 4029,
      "osta": 4030,
      "destra": 4031,
      "##miche": 4032,
      "recensioni": 4033,
      "notizie": 4034,
      "##lico": 4035,
      "tecniche": 4036,
      "##ent": 4037,
      "2009": 4038,
      "ufficio": 4039,
      "fratelli": 4040,
      "affin": 4041,
      "##riamo": 4042,
      "sha": 4043,
      "diso": 4044,
      "riesco": 4045,
      "questioni": 4046,
      "wal": 4047,
      "##ds": 4048,
      "principe": 4049,
      "##nico": 4050,
      "dichiarazione": 4051,
      "2013": 4052,
      "2008": 4053,
      "simili": 4054,
      "##ccare": 4055,
      "comprende": 4056,
      "metti": 4057,
      "##informazione": 4058,
      "esporta": 4059,
      "contea": 4060,
      "##82": 4061,
      "carne": 4062,
      "tedesco": 4063,
      "permesso": 4064,
      "aree": 4065,
      "flo": 4066,
      "sapevo": 4067,
      "##grafi": 4068,
      "formato": 4069,
      "mantenere": 4070,
      "##endere": 4071,
      "##mino": 4072,
      "##esperi": 4073,
      "cur": 4074,
      "##rov": 4075,
      "##tene": 4076,
      "##89": 4077,
      "componenti": 4078,
      "cambio": 4079,
      "ecu": 4080,
      "azione": 4081,
      "ambiente": 4082,
      "fiori": 4083,
      ")": 4084,
      "chilo": 4085,
      "ovvia": 4086,
      "##raneo": 4087,
      "cop": 4088,
      "##ania": 4089,
      "scambio": 4090,
      "completa": 4091,
      "sport": 4092,
      "qualunque": 4093,
      "discussione": 4094,
      "vet": 4095,
      "uccidere": 4096,
      "##/0": 4097,
      "interessi": 4098,
      "##bbene": 4099,
      "##14": 4100,
      "##ward": 4101,
      "##je": 4102,
      "##asso": 4103,
      "##minati": 4104,
      "stasera": 4105,
      "ultimo": 4106,
      "provo": 4107,
      "provve": 4108,
      "ap": 4109,
      "##ong": 4110,
      "vogliamo": 4111,
      "##estra": 4112,
      "costru": 4113,
      "ji": 4114,
      "tan": 4115,
      "soff": 4116,
      "fil": 4117,
      "aspetto": 4118,
      "##golo": 4119,
      "gar": 4120,
      "urb": 4121,
      "ispi": 4122,
      "##iono": 4123,
      "effetto": 4124,
      "umano": 4125,
      "mira": 4126,
      "pezzi": 4127,
      "modelli": 4128,
      "##america": 4129,
      "accompagna": 4130,
      "morti": 4131,
      "portata": 4132,
      "##azienda": 4133,
      "##zzano": 4134,
      "cena": 4135,
      "distrib": 4136,
      "nega": 4137,
      "energe": 4138,
      "londra": 4139,
      "##ggiato": 4140,
      "nato": 4141,
      "fantastico": 4142,
      "meravi": 4143,
      "occid": 4144,
      "diverti": 4145,
      "##accesso": 4146,
      "teatro": 4147,
      "nazioni": 4148,
      "vogliono": 4149,
      "##din": 4150,
      "agi": 4151,
      "##sizione": 4152,
      "emo": 4153,
      "musicale": 4154,
      "paio": 4155,
      "##grazione": 4156,
      "distretto": 4157,
      "aumento": 4158,
      "archite": 4159,
      "rispetta": 4160,
      "rober": 4161,
      "acque": 4162,
      "oggetti": 4163,
      "##yn": 4164,
      "ki": 4165,
      "##spedale": 4166,
      "##tivamente": 4167,
      "##landese": 4168,
      "guard": 4169,
      "##cali": 4170,
      "giocare": 4171,
      "canzone": 4172,
      "utilizzati": 4173,
      "­": 4174,
      "metter": 4175,
      "andando": 4176,
      "##77": 4177,
      "conforme": 4178,
      "natale": 4179,
      "saper": 4180,
      "2006": 4181,
      "test": 4182,
      "##ttino": 4183,
      "scoprire": 4184,
      "buono": 4185,
      "promozione": 4186,
      "complesso": 4187,
      "##nare": 4188,
      "##forme": 4189,
      "tera": 4190,
      "risulta": 4191,
      "metro": 4192,
      "2004": 4193,
      "noto": 4194,
      "##tuniten": 4195,
      "valle": 4196,
      "pressione": 4197,
      "##onare": 4198,
      "autono": 4199,
      "id": 4200,
      "scegliere": 4201,
      "grave": 4202,
      "pietro": 4203,
      "##mpia": 4204,
      "circon": 4205,
      "sviluppa": 4206,
      "affrontare": 4207,
      "eb": 4208,
      "assolutamente": 4209,
      "segue": 4210,
      "originale": 4211,
      "inda": 4212,
      "firenze": 4213,
      "##tus": 4214,
      "campi": 4215,
      "##bus": 4216,
      "rosa": 4217,
      "comando": 4218,
      "##yo": 4219,
      "##ise": 4220,
      "conseguenza": 4221,
      "##tane": 4222,
      "clima": 4223,
      "##mas": 4224,
      "necessaria": 4225,
      "statuniten": 4226,
      "sicura": 4227,
      "labo": 4228,
      "iniziato": 4229,
      "riforma": 4230,
      "volume": 4231,
      "##boli": 4232,
      "##vazione": 4233,
      "esplo": 4234,
      "organizzazioni": 4235,
      "fia": 4236,
      "benefi": 4237,
      "numerose": 4238,
      "solito": 4239,
      "volo": 4240,
      "naturali": 4241,
      "##acquis": 4242,
      "##dino": 4243,
      "##ciato": 4244,
      "continuare": 4245,
      "##istente": 4246,
      "efficace": 4247,
      "cru": 4248,
      "emen": 4249,
      "obiettivo": 4250,
      "debb": 4251,
      "porti": 4252,
      "##unt": 4253,
      "vinci": 4254,
      "santi": 4255,
      "protoco": 4256,
      "doppia": 4257,
      "concern": 4258,
      "scomp": 4259,
      "##sk": 4260,
      "##8/": 4261,
      "treni": 4262,
      "##87": 4263,
      "plu": 4264,
      "modu": 4265,
      "flu": 4266,
      "facilmente": 4267,
      "arma": 4268,
      "prossima": 4269,
      "cina": 4270,
      "partita": 4271,
      "scio": 4272,
      "imb": 4273,
      "##elles": 4274,
      "giappon": 4275,
      "##ther": 4276,
      "##quil": 4277,
      "diba": 4278,
      "conferenza": 4279,
      "ideale": 4280,
      "vecchia": 4281,
      "consumatori": 4282,
      "diverso": 4283,
      "colla": 4284,
      "##86": 4285,
      "reci": 4286,
      "contributo": 4287,
      ">": 4288,
      "credere": 4289,
      "considerato": 4290,
      "dena": 4291,
      "presa": 4292,
      "##occupazione": 4293,
      "pal": 4294,
      "inizio": 4295,
      "località": 4296,
      "##intere": 4297,
      "errore": 4298,
      "##messi": 4299,
      "commissario": 4300,
      "pale": 4301,
      "presidenza": 4302,
      "edizione": 4303,
      "decora": 4304,
      "ridurre": 4305,
      "##nità": 4306,
      "finalmente": 4307,
      "##intera": 4308,
      "controllare": 4309,
      "br": 4310,
      "##\"?": 4311,
      "malattia": 4312,
      "stesse": 4313,
      "##album": 4314,
      "fidu": 4315,
      "schia": 4316,
      "hen": 4317,
      "##centi": 4318,
      "umana": 4319,
      "ponte": 4320,
      "vinto": 4321,
      "colazione": 4322,
      "industriale": 4323,
      "dogan": 4324,
      "q": 4325,
      "##turi": 4326,
      "percen": 4327,
      "##tutto": 4328,
      "##cenza": 4329,
      "danno": 4330,
      "news": 4331,
      "sovra": 4332,
      "particolari": 4333,
      "##wo": 4334,
      "creato": 4335,
      "é": 4336,
      "##roni": 4337,
      "fate": 4338,
      "isra": 4339,
      "##49": 4340,
      "moto": 4341,
      "promuovere": 4342,
      "tenuto": 4343,
      "##dersi": 4344,
      "lontano": 4345,
      "procedure": 4346,
      "protagon": 4347,
      "##1)": 4348,
      "importanza": 4349,
      "normale": 4350,
      "studenti": 4351,
      "esigenze": 4352,
      "fonte": 4353,
      "##tidia": 4354,
      "##logica": 4355,
      "##ficata": 4356,
      "##esperienza": 4357,
      "india": 4358,
      "taglia": 4359,
      "incontro": 4360,
      "vennero": 4361,
      "cra": 4362,
      "estra": 4363,
      "terro": 4364,
      "considerando": 4365,
      "papà": 4366,
      "bocca": 4367,
      "##.3": 4368,
      "domen": 4369,
      "riesce": 4370,
      "giusta": 4371,
      "scusi": 4372,
      "4,": 4373,
      "##ggiu": 4374,
      "##ttuto": 4375,
      "##economia": 4376,
      "effettu": 4377,
      "##25": 4378,
      "fina": 4379,
      "##4)": 4380,
      "##allegato": 4381,
      "rie": 4382,
      "##attuazione": 4383,
      "##toriale": 4384,
      "##ensa": 4385,
      "condizione": 4386,
      "avesse": 4387,
      "previsto": 4388,
      "##stato": 4389,
      "perciò": 4390,
      "##anora": 4391,
      "mangiare": 4392,
      "minaccia": 4393,
      "figura": 4394,
      "definizione": 4395,
      "anzi": 4396,
      "inco": 4397,
      "venga": 4398,
      "potenzia": 4399,
      "quotidia": 4400,
      "arra": 4401,
      "prof": 4402,
      "chiunque": 4403,
      "anton": 4404,
      "##utili": 4405,
      "forti": 4406,
      "os": 4407,
      "seguire": 4408,
      "finanziario": 4409,
      "contatti": 4410,
      "tecnologie": 4411,
      "ovviamente": 4412,
      "modificato": 4413,
      "##ling": 4414,
      "motivi": 4415,
      "##bita": 4416,
      "percorso": 4417,
      "det": 4418,
      "##cante": 4419,
      "legisla": 4420,
      "dimensione": 4421,
      "team": 4422,
      "##13": 4423,
      "espre": 4424,
      "lie": 4425,
      "##ministrazione": 4426,
      "##os": 4427,
      "ricon": 4428,
      "strano": 4429,
      "occup": 4430,
      "dele": 4431,
      "immediatamente": 4432,
      "antici": 4433,
      "bisogna": 4434,
      "voli": 4435,
      "##deri": 4436,
      "dura": 4437,
      "considerazione": 4438,
      "ritar": 4439,
      "dev": 4440,
      "distribuzione": 4441,
      "migliaia": 4442,
      "consente": 4443,
      "##ttito": 4444,
      "essendo": 4445,
      "gratuita": 4446,
      "affinché": 4447,
      "soggetti": 4448,
      "leggere": 4449,
      "desider": 4450,
      "xvi": 4451,
      "##cur": 4452,
      "specifiche": 4453,
      "consa": 4454,
      "alterna": 4455,
      "poteva": 4456,
      "produttori": 4457,
      "dina": 4458,
      "carico": 4459,
      "bus": 4460,
      "##.200": 4461,
      "indipendente": 4462,
      "##asp": 4463,
      "##ellente": 4464,
      "prestazioni": 4465,
      "funzioni": 4466,
      "sinda": 4467,
      "semi": 4468,
      "francesco": 4469,
      "gall": 4470,
      "necessarie": 4471,
      "cambiare": 4472,
      "villaggio": 4473,
      "lingue": 4474,
      "sorpre": 4475,
      "panora": 4476,
      "prospetti": 4477,
      "##bia": 4478,
      "##bbio": 4479,
      "situata": 4480,
      "denaro": 4481,
      "capelli": 4482,
      "date": 4483,
      "##esercito": 4484,
      "luoghi": 4485,
      "riunione": 4486,
      "guardia": 4487,
      "##gri": 4488,
      "vice": 4489,
      "micha": 4490,
      "preoccup": 4491,
      "torneo": 4492,
      "##zzate": 4493,
      "##fficienza": 4494,
      "confi": 4495,
      "installa": 4496,
      "america": 4497,
      "voluto": 4498,
      "##ill": 4499,
      "partenza": 4500,
      "roba": 4501,
      "##teo": 4502,
      "insegn": 4503,
      "raccolta": 4504,
      "esse": 4505,
      "record": 4506,
      "##-3": 4507,
      "##istere": 4508,
      "condan": 4509,
      "##vola": 4510,
      "od": 4511,
      "##cos": 4512,
      "##immag": 4513,
      "##:00": 4514,
      "arrivo": 4515,
      "terreno": 4516,
      "parcheggio": 4517,
      "diretta": 4518,
      "eu": 4519,
      "##mpe": 4520,
      "alcuna": 4521,
      "##erto": 4522,
      "ripren": 4523,
      "conver": 4524,
      "tel": 4525,
      "addi": 4526,
      "faro": 4527,
      "##mera": 4528,
      "##ney": 4529,
      "immagina": 4530,
      "##nella": 4531,
      "ottenuto": 4532,
      "##canze": 4533,
      "fondamentale": 4534,
      "##stare": 4535,
      "labora": 4536,
      "globale": 4537,
      "frank": 4538,
      "traffi": 4539,
      "consegna": 4540,
      "##sero": 4541,
      "dispone": 4542,
      "potenza": 4543,
      "ugu": 4544,
      "realizzato": 4545,
      "retro": 4546,
      "fiducia": 4547,
      "##mmy": 4548,
      "culo": 4549,
      "rapporti": 4550,
      "negozio": 4551,
      "requis": 4552,
      "traccia": 4553,
      "##word": 4554,
      "##eld": 4555,
      "##cs": 4556,
      "##vita": 4557,
      "##42": 4558,
      "edifici": 4559,
      "reso": 4560,
      "conosciuto": 4561,
      "premi": 4562,
      "bran": 4563,
      "canti": 4564,
      "##gin": 4565,
      "tradizione": 4566,
      "attimo": 4567,
      "##nis": 4568,
      "##tività": 4569,
      "##san": 4570,
      "utile": 4571,
      "volete": 4572,
      "##giorno": 4573,
      "##zionato": 4574,
      "andar": 4575,
      "iniziative": 4576,
      "iv": 4577,
      "##46": 4578,
      "composto": 4579,
      "dottor": 4580,
      "farti": 4581,
      "supple": 4582,
      "2018": 4583,
      "##ller": 4584,
      "scelto": 4585,
      "pietra": 4586,
      "##ester": 4587,
      "band": 4588,
      "disci": 4589,
      "##cate": 4590,
      "memoria": 4591,
      "conoscere": 4592,
      "mattina": 4593,
      "##ud": 4594,
      "##17": 4595,
      "mac": 4596,
      "governa": 4597,
      "funzionamento": 4598,
      "tener": 4599,
      "##orig": 4600,
      "##cone": 4601,
      "eur": 4602,
      "discip": 4603,
      "##ado": 4604,
      "##otti": 4605,
      "divertente": 4606,
      "2017": 4607,
      "doppio": 4608,
      "dà": 4609,
      "ringrazia": 4610,
      "passaggio": 4611,
      "rispar": 4612,
      "##bin": 4613,
      "##rendo": 4614,
      "metodi": 4615,
      "##appro": 4616,
      "altra": 4617,
      "coppia": 4618,
      "organ": 4619,
      "##rli": 4620,
      "mobili": 4621,
      "provato": 4622,
      "##stero": 4623,
      "##onico": 4624,
      "alex": 4625,
      "##rea": 4626,
      "##eme": 4627,
      "##vendo": 4628,
      "##alità": 4629,
      "as": 4630,
      "finanziamento": 4631,
      "scala": 4632,
      "divisione": 4633,
      "##/201": 4634,
      "concre": 4635,
      "sufficiente": 4636,
      "compito": 4637,
      "rischi": 4638,
      "assistenza": 4639,
      "ere": 4640,
      "##tù": 4641,
      "moni": 4642,
      "##spita": 4643,
      "rifer": 4644,
      "costante": 4645,
      "libri": 4646,
      "##\"),": 4647,
      "tosc": 4648,
      "augu": 4649,
      "##rali": 4650,
      "ritiene": 4651,
      "##xelles": 4652,
      "splen": 4653,
      "doveva": 4654,
      "dolce": 4655,
      "##pu": 4656,
      "tasso": 4657,
      "annuncia": 4658,
      "specifica": 4659,
      "ammi": 4660,
      "##date": 4661,
      "svizzera": 4662,
      "tutela": 4663,
      "david": 4664,
      "post": 4665,
      "luci": 4666,
      "inna": 4667,
      "fossero": 4668,
      "##cura": 4669,
      "sullo": 4670,
      "appun": 4671,
      "respi": 4672,
      "trans": 4673,
      "televisi": 4674,
      "ria": 4675,
      "falli": 4676,
      "festival": 4677,
      "by": 4678,
      "profilo": 4679,
      "##contro": 4680,
      "80": 4681,
      "500": 4682,
      "nasco": 4683,
      "provenienti": 4684,
      "##verso": 4685,
      "illustra": 4686,
      "ze": 4687,
      "benven": 4688,
      "##gro": 4689,
      "##come": 4690,
      "mura": 4691,
      "##del": 4692,
      "##estre": 4693,
      "coppa": 4694,
      "rilascia": 4695,
      "##ore": 4696,
      "2001": 4697,
      "##dibile": 4698,
      "peter": 4699,
      "dimin": 4700,
      "##dotti": 4701,
      "soluzioni": 4702,
      "propone": 4703,
      "bul": 4704,
      "##wer": 4705,
      "indirizzo": 4706,
      "##sciu": 4707,
      "tranquil": 4708,
      "impegna": 4709,
      "rispondere": 4710,
      "##impresa": 4711,
      "quarto": 4712,
      "##99": 4713,
      "45": 4714,
      "##gini": 4715,
      "##ek": 4716,
      "conosco": 4717,
      "dovrà": 4718,
      "michael": 4719,
      "you": 4720,
      "##lly": 4721,
      "##37": 4722,
      "menti": 4723,
      "macchine": 4724,
      "36": 4725,
      "legislazione": 4726,
      "biglietti": 4727,
      "##inse": 4728,
      "##dico": 4729,
      "##erato": 4730,
      "mater": 4731,
      "unite": 4732,
      "volontà": 4733,
      "sostanze": 4734,
      "proi": 4735,
      "agente": 4736,
      "##dimenti": 4737,
      "confli": 4738,
      "completo": 4739,
      "quartiere": 4740,
      "resid": 4741,
      "dolore": 4742,
      "ingre": 4743,
      "cookie": 4744,
      "lunghezza": 4745,
      "##88": 4746,
      "marina": 4747,
      "phi": 4748,
      "esatto": 4749,
      "##micidio": 4750,
      "este": 4751,
      "universi": 4752,
      "medie": 4753,
      "my": 4754,
      "analisi": 4755,
      "mediter": 4756,
      "speri": 4757,
      "sebbene": 4758,
      "minimo": 4759,
      "consumo": 4760,
      "vacanze": 4761,
      "popolare": 4762,
      "##ffe": 4763,
      "pran": 4764,
      "##fra": 4765,
      "protocollo": 4766,
      "uccider": 4767,
      "assicura": 4768,
      "##my": 4769,
      "##urgo": 4770,
      "femminile": 4771,
      "fian": 4772,
      "piane": 4773,
      "obbliga": 4774,
      "##ston": 4775,
      "rientra": 4776,
      "ridu": 4777,
      "##attuale": 4778,
      "sapete": 4779,
      "70": 4780,
      "##ep": 4781,
      "bravo": 4782,
      "wor": 4783,
      "##ssime": 4784,
      "##tes": 4785,
      "fondamentali": 4786,
      "alloggio": 4787,
      "lettere": 4788,
      "aeroporto": 4789,
      "raggiunto": 4790,
      "culturale": 4791,
      "incora": 4792,
      "credito": 4793,
      "richieste": 4794,
      "contrario": 4795,
      "finita": 4796,
      "argo": 4797,
      "##scente": 4798,
      "bruxelles": 4799,
      "##ens": 4800,
      "coraggio": 4801,
      "##fort": 4802,
      "numeri": 4803,
      "cento": 4804,
      "190": 4805,
      "vantaggio": 4806,
      "austria": 4807,
      "##associa": 4808,
      "cattura": 4809,
      "##atten": 4810,
      "##gimento": 4811,
      "satelli": 4812,
      "jam": 4813,
      "notizia": 4814,
      "kg": 4815,
      "criteri": 4816,
      "##volu": 4817,
      "versa": 4818,
      "##venire": 4819,
      "##pevole": 4820,
      "edu": 4821,
      "##ot": 4822,
      "orientale": 4823,
      "compagni": 4824,
      "bordo": 4825,
      "intelli": 4826,
      "infra": 4827,
      "pagare": 4828,
      "meccan": 4829,
      "leader": 4830,
      "principalmente": 4831,
      "2002": 4832,
      "##sile": 4833,
      "napoli": 4834,
      "sam": 4835,
      "##utato": 4836,
      "##ggiamento": 4837,
      "##cchie": 4838,
      "fro": 4839,
      "appli": 4840,
      "finanziaria": 4841,
      "percentuale": 4842,
      "stanzia": 4843,
      "##ssore": 4844,
      "gal": 4845,
      "##anda": 4846,
      "##arri": 4847,
      "tabella": 4848,
      "##anni": 4849,
      "possano": 4850,
      "impianti": 4851,
      "modifiche": 4852,
      "guardare": 4853,
      "sarebbero": 4854,
      "sicuramente": 4855,
      "segno": 4856,
      "cercato": 4857,
      "inser": 4858,
      "##ranea": 4859,
      "lava": 4860,
      "##risti": 4861,
      "appa": 4862,
      "##bio": 4863,
      "restitu": 4864,
      "provare": 4865,
      "grecia": 4866,
      "##18": 4867,
      "certa": 4868,
      "2003": 4869,
      "enti": 4870,
      "spon": 4871,
      "traspare": 4872,
      "carte": 4873,
      "max": 4874,
      "chieder": 4875,
      "tecnico": 4876,
      "gamma": 4877,
      "rilev": 4878,
      "austra": 4879,
      "##glianza": 4880,
      "visitatori": 4881,
      "ph": 4882,
      "priva": 4883,
      "##detta": 4884,
      "aggiungere": 4885,
      "scorso": 4886,
      "miglioramento": 4887,
      "eletto": 4888,
      "00": 4889,
      "realizzare": 4890,
      "acciaio": 4891,
      "##las": 4892,
      "regina": 4893,
      "##tena": 4894,
      "potrà": 4895,
      "nar": 4896,
      "##zzino": 4897,
      "alloggi": 4898,
      "licen": 4899,
      "##36": 4900,
      "farmi": 4901,
      "##ppure": 4902,
      "colleghi": 4903,
      "presentare": 4904,
      "muni": 4905,
      "ovvero": 4906,
      "garanzia": 4907,
      "contribu": 4908,
      "insu": 4909,
      "##bria": 4910,
      "##diti": 4911,
      "commercia": 4912,
      "attuale": 4913,
      "latte": 4914,
      "assieme": 4915,
      "caffè": 4916,
      "isole": 4917,
      "dose": 4918,
      "##istica": 4919,
      "##ves": 4920,
      "finanziari": 4921,
      "afferma": 4922,
      "diplo": 4923,
      "scuole": 4924,
      "000": 4925,
      "barc": 4926,
      "politici": 4927,
      "inver": 4928,
      "##”.": 4929,
      "compro": 4930,
      "perdita": 4931,
      "pubblicazione": 4932,
      "centi": 4933,
      "prigione": 4934,
      "splendi": 4935,
      "avrà": 4936,
      "##rle": 4937,
      "spos": 4938,
      "centri": 4939,
      "##scono": 4940,
      "presentazione": 4941,
      "ufficiali": 4942,
      "rimanere": 4943,
      "rock": 4944,
      "##ant": 4945,
      "##mentato": 4946,
      "##ach": 4947,
      "giuse": 4948,
      "5,": 4949,
      "##unta": 4950,
      "finché": 4951,
      "##ggiata": 4952,
      "aprire": 4953,
      "laure": 4954,
      "traffico": 4955,
      "##ssare": 4956,
      "idro": 4957,
      "chiese": 4958,
      "##autorità": 4959,
      "der": 4960,
      "##detti": 4961,
      "mori": 4962,
      "1999": 4963,
      "potresti": 4964,
      "speranza": 4965,
      "##gallo": 4966,
      "dimmi": 4967,
      "##lterra": 4968,
      "dialogo": 4969,
      "straordina": 4970,
      "liqui": 4971,
      "nuovamente": 4972,
      "##way": 4973,
      "cinema": 4974,
      "bir": 4975,
      "ripo": 4976,
      "password": 4977,
      "maggioranza": 4978,
      "potremmo": 4979,
      "##vello": 4980,
      "alti": 4981,
      "viva": 4982,
      "bibbia": 4983,
      "rifu": 4984,
      "goo": 4985,
      "temperatura": 4986,
      "clo": 4987,
      "custo": 4988,
      "arrivato": 4989,
      "##ervato": 4990,
      "##-201": 4991,
      "##gendo": 4992,
      "pezzo": 4993,
      "##anima": 4994,
      "##cher": 4995,
      "chilometri": 4996,
      "##clu": 4997,
      "giappone": 4998,
      "vini": 4999,
      "##79": 5000,
      "##inten": 5001,
      "##associazione": 5002,
      "mancanza": 5003,
      "fonti": 5004,
      "##sche": 5005,
      "##rdo": 5006,
      "biblio": 5007,
      "distur": 5008,
      "##pore": 5009,
      "vittime": 5010,
      "area": 5011,
      "risolvere": 5012,
      "##ctor": 5013,
      "partecipare": 5014,
      "##lanti": 5015,
      "idee": 5016,
      "##immagine": 5017,
      "##ssato": 5018,
      "##importanza": 5019,
      "\"\"": 5020,
      "corsi": 5021,
      "dicono": 5022,
      "controlli": 5023,
      "##istro": 5024,
      "##ficati": 5025,
      "naturalmente": 5026,
      "campione": 5027,
      "cavolo": 5028,
      "divis": 5029,
      "##tichetta": 5030,
      "##jo": 5031,
      "agriturismo": 5032,
      "signorina": 5033,
      "entrambe": 5034,
      "##nel": 5035,
      "fur": 5036,
      "tieni": 5037,
      "##istruzione": 5038,
      "feno": 5039,
      "doccia": 5040,
      "ue": 5041,
      "vostre": 5042,
      "turno": 5043,
      "##43": 5044,
      "##enziali": 5045,
      "##berg": 5046,
      "##telle": 5047,
      "operatori": 5048,
      "siti": 5049,
      "giuseppe": 5050,
      "peccato": 5051,
      "tavolo": 5052,
      "scheda": 5053,
      "##entemente": 5054,
      "marco": 5055,
      "##scritto": 5056,
      "registrati": 5057,
      "##nie": 5058,
      "recupera": 5059,
      "##ys": 5060,
      "##simo": 5061,
      "zucch": 5062,
      "tornato": 5063,
      "utilizzando": 5064,
      "##76": 5065,
      "offerta": 5066,
      "300": 5067,
      "##2)": 5068,
      "##erebbe": 5069,
      "pranzo": 5070,
      "aperta": 5071,
      "##luo": 5072,
      "cristiani": 5073,
      "minuto": 5074,
      "registrazione": 5075,
      "costituisce": 5076,
      "scoper": 5077,
      "lou": 5078,
      "silen": 5079,
      "viaggia": 5080,
      "esistono": 5081,
      "grosso": 5082,
      "##nanzi": 5083,
      "feste": 5084,
      "sarei": 5085,
      "nomi": 5086,
      "##»,": 5087,
      "tribunale": 5088,
      "pistola": 5089,
      "ciascuno": 5090,
      "dibattito": 5091,
      "chiedo": 5092,
      "bere": 5093,
      "##erazione": 5094,
      "‘": 5095,
      "aumentare": 5096,
      "sino": 5097,
      "email": 5098,
      "sil": 5099,
      "cee": 5100,
      "ristruttura": 5101,
      "danni": 5102,
      "agenti": 5103,
      "categorie": 5104,
      "##4/": 5105,
      "##colare": 5106,
      "russia": 5107,
      "riuni": 5108,
      "barca": 5109,
      "certamente": 5110,
      "trattati": 5111,
      "contenuti": 5112,
      "her": 5113,
      "##pla": 5114,
      "iniziare": 5115,
      "pad": 5116,
      "segreto": 5117,
      "##ssan": 5118,
      "rad": 5119,
      "ministero": 5120,
      "discussioni": 5121,
      "##lievo": 5122,
      "offrire": 5123,
      "connessione": 5124,
      "divi": 5125,
      "singoli": 5126,
      "scompar": 5127,
      "##pt": 5128,
      "seleziona": 5129,
      "bianca": 5130,
      "##48": 5131,
      "willi": 5132,
      "necessari": 5133,
      "enor": 5134,
      "estremamente": 5135,
      "##ces": 5136,
      "gravi": 5137,
      "##analisi": 5138,
      "chiaramente": 5139,
      "tori": 5140,
      "##fare": 5141,
      "##aff": 5142,
      "##erare": 5143,
      "elezioni": 5144,
      "fondazione": 5145,
      "occidentale": 5146,
      "asia": 5147,
      "requisiti": 5148,
      "corsa": 5149,
      "##ux": 5150,
      "##lava": 5151,
      "##cili": 5152,
      "aumenta": 5153,
      "attrib": 5154,
      "ferma": 5155,
      "##af": 5156,
      "prenotazione": 5157,
      "##utilizzo": 5158,
      "chiuso": 5159,
      "indis": 5160,
      "ciclo": 5161,
      "##matico": 5162,
      "##metro": 5163,
      "5.": 5164,
      "meraviglio": 5165,
      "gratuito": 5166,
      "resistenza": 5167,
      "squadre": 5168,
      "sostenere": 5169,
      "##abbiamo": 5170,
      "2019": 5171,
      "##nata": 5172,
      "costruito": 5173,
      "miliardi": 5174,
      "##scì": 5175,
      "decide": 5176,
      "gon": 5177,
      "sinte": 5178,
      "cancella": 5179,
      "##cerdo": 5180,
      "conformemente": 5181,
      "putta": 5182,
      "##eth": 5183,
      "##vali": 5184,
      "cali": 5185,
      "##end": 5186,
      "lasci": 5187,
      "prenota": 5188,
      "##aeroporto": 5189,
      "##5)": 5190,
      "39": 5191,
      "##intero": 5192,
      "priorità": 5193,
      "interessante": 5194,
      "rappresentanti": 5195,
      "limite": 5196,
      "addo": 5197,
      "matt": 5198,
      "##teca": 5199,
      "economiche": 5200,
      "scambi": 5201,
      "filoso": 5202,
      "qualora": 5203,
      "collezione": 5204,
      "colpo": 5205,
      "merid": 5206,
      "scapp": 5207,
      "fidanza": 5208,
      "ghia": 5209,
      "james": 5210,
      "##offer": 5211,
      "suggeri": 5212,
      "amma": 5213,
      "##hanno": 5214,
      "farà": 5215,
      "unione": 5216,
      "##eff": 5217,
      "##ks": 5218,
      "cane": 5219,
      "##lizzato": 5220,
      "facili": 5221,
      "sacerdo": 5222,
      "elenco": 5223,
      "ken": 5224,
      "##mber": 5225,
      "##tile": 5226,
      "dona": 5227,
      "artisti": 5228,
      "influenza": 5229,
      "corrente": 5230,
      "##ball": 5231,
      "produttore": 5232,
      "##viti": 5233,
      "##duti": 5234,
      "preventi": 5235,
      "dedicato": 5236,
      "##edificio": 5237,
      "ordini": 5238,
      "aggiungi": 5239,
      "industriali": 5240,
      "vetro": 5241,
      "potra": 5242,
      "consigli": 5243,
      "manca": 5244,
      "##volmente": 5245,
      "##bar": 5246,
      "tom": 5247,
      "signori": 5248,
      "sacri": 5249,
      "##elenco": 5250,
      "##47": 5251,
      "richia": 5252,
      "finire": 5253,
      "paul": 5254,
      "##denze": 5255,
      "sorve": 5256,
      "umi": 5257,
      "avessi": 5258,
      "##tensione": 5259,
      "##gnano": 5260,
      "statunitense": 5261,
      "preghi": 5262,
      "andro": 5263,
      "veicoli": 5264,
      "ner": 5265,
      "pacche": 5266,
      "##ecc": 5267,
      "motori": 5268,
      "ultime": 5269,
      "##terio": 5270,
      "##zioso": 5271,
      "arte": 5272,
      "’": 5273,
      "art": 5274,
      "riscal": 5275,
      "interventi": 5276,
      "basato": 5277,
      "anzia": 5278,
      "titoli": 5279,
      "01": 5280,
      "regionali": 5281,
      "preparazione": 5282,
      "limiti": 5283,
      "tho": 5284,
      "##pero": 5285,
      "##3/": 5286,
      "##schi": 5287,
      "##isi": 5288,
      "debu": 5289,
      "geno": 5290,
      "ogn": 5291,
      "avrebbero": 5292,
      "adulti": 5293,
      "marchio": 5294,
      "##book": 5295,
      "fronti": 5296,
      "inizialmente": 5297,
      "venuta": 5298,
      "spiace": 5299,
      "vada": 5300,
      "dica": 5301,
      "##pria": 5302,
      "##esia": 5303,
      "maestro": 5304,
      "##22": 5305,
      "salvare": 5306,
      "vescovo": 5307,
      "##gar": 5308,
      "##istitu": 5309,
      "##dge": 5310,
      "scrivere": 5311,
      "circolazione": 5312,
      "visione": 5313,
      "avevi": 5314,
      "comand": 5315,
      "##var": 5316,
      "andate": 5317,
      "accessori": 5318,
      "proteggere": 5319,
      "rifiuti": 5320,
      "opportunità": 5321,
      "abbiano": 5322,
      "##-5": 5323,
      "assum": 5324,
      "ultima": 5325,
      "##\").": 5326,
      "ambientale": 5327,
      "orto": 5328,
      "responsabili": 5329,
      "air": 5330,
      "interni": 5331,
      "bassa": 5332,
      "congi": 5333,
      "tante": 5334,
      "##agenzia": 5335,
      "biglietto": 5336,
      "##'8": 5337,
      "##ttan": 5338,
      "notevole": 5339,
      "##dows": 5340,
      "conseguenze": 5341,
      "faceva": 5342,
      "conclusione": 5343,
      "riconoscimento": 5344,
      "##seguito": 5345,
      "##scin": 5346,
      "##cazioni": 5347,
      "ricevere": 5348,
      "prepara": 5349,
      "bambina": 5350,
      "ampia": 5351,
      "smetti": 5352,
      "##gate": 5353,
      "ricord": 5354,
      "impedi": 5355,
      "city": 5356,
      "dormire": 5357,
      "george": 5358,
      "palla": 5359,
      "superiori": 5360,
      "dimenticato": 5361,
      "##nello": 5362,
      "william": 5363,
      "cosidd": 5364,
      "muta": 5365,
      "##1/": 5366,
      "sinc": 5367,
      "vege": 5368,
      "giapponese": 5369,
      "mille": 5370,
      "comunitarie": 5371,
      "##enna": 5372,
      "riun": 5373,
      "crimina": 5374,
      "##pressione": 5375,
      "##damenti": 5376,
      "piatta": 5377,
      "diventato": 5378,
      "google": 5379,
      "destinati": 5380,
      "rivesti": 5381,
      "lancia": 5382,
      "restare": 5383,
      "desideri": 5384,
      "riguardanti": 5385,
      "associazione": 5386,
      "oper": 5387,
      "cambiamenti": 5388,
      "##200": 5389,
      "##offerta": 5390,
      "##par": 5391,
      "selezione": 5392,
      "nominato": 5393,
      "incen": 5394,
      "portogallo": 5395,
      "##bal": 5396,
      "##inizia": 5397,
      "faremo": 5398,
      "resti": 5399,
      "##uali": 5400,
      "pas": 5401,
      "##nici": 5402,
      "##--------": 5403,
      "esame": 5404,
      "cambiamento": 5405,
      "##canti": 5406,
      "##ington": 5407,
      "ampio": 5408,
      "##sili": 5409,
      "esperti": 5410,
      "rapidamente": 5411,
      "conformità": 5412,
      "spagnolo": 5413,
      "sarai": 5414,
      "anna": 5415,
      "decen": 5416,
      "piante": 5417,
      "farò": 5418,
      "##trò": 5419,
      "collegamento": 5420,
      "pena": 5421,
      "##”,": 5422,
      "chiamo": 5423,
      "##gento": 5424,
      "costruire": 5425,
      "diversa": 5426,
      "specifico": 5427,
      "les": 5428,
      "voto": 5429,
      "##forte": 5430,
      "giocatori": 5431,
      "fisica": 5432,
      "##pensa": 5433,
      "lettura": 5434,
      "##.)": 5435,
      "richiede": 5436,
      "##tal": 5437,
      "##mentale": 5438,
      "sforzi": 5439,
      "vuol": 5440,
      "aposto": 5441,
      "acquistare": 5442,
      "intenzione": 5443,
      "##intro": 5444,
      "combattere": 5445,
      "annunci": 5446,
      "tizio": 5447,
      "cassa": 5448,
      "aspettare": 5449,
      "$": 5450,
      "world": 5451,
      "trasfer": 5452,
      "##gliata": 5453,
      "franco": 5454,
      "accade": 5455,
      "competenze": 5456,
      "##equi": 5457,
      "##38": 5458,
      "##ensi": 5459,
      "##ersi": 5460,
      "##gs": 5461,
      "##nio": 5462,
      "##estate": 5463,
      "pin": 5464,
      "##impo": 5465,
      "##minate": 5466,
      "aereo": 5467,
      "##comp": 5468,
      "toscana": 5469,
      "75": 5470,
      "ces": 5471,
      "pianta": 5472,
      "trasferimento": 5473,
      "pratiche": 5474,
      "##inato": 5475,
      "sant": 5476,
      "##landia": 5477,
      "##65": 5478,
      "top": 5479,
      "##zionare": 5480,
      "##ira": 5481,
      "sbagliato": 5482,
      "coni": 5483,
      "succedendo": 5484,
      "relatore": 5485,
      "prevista": 5486,
      "partite": 5487,
      "cala": 5488,
      "italiani": 5489,
      "quota": 5490,
      "previste": 5491,
      "##sch": 5492,
      "##agrico": 5493,
      "insegna": 5494,
      "vigi": 5495,
      "##ccati": 5496,
      "dispositivo": 5497,
      "transi": 5498,
      "##inamento": 5499,
      "ille": 5500,
      "##6/": 5501,
      "ospita": 5502,
      "frequenta": 5503,
      "##2/": 5504,
      "porte": 5505,
      "##ssino": 5506,
      "partecipanti": 5507,
      "##bel": 5508,
      "chiamare": 5509,
      "petro": 5510,
      "ari": 5511,
      "canale": 5512,
      "din": 5513,
      "esistenti": 5514,
      "domenica": 5515,
      "evidente": 5516,
      "firma": 5517,
      "sogno": 5518,
      "conven": 5519,
      "bellezza": 5520,
      "seria": 5521,
      "condizionata": 5522,
      "##eratore": 5523,
      "angel": 5524,
      "opin": 5525,
      "interessati": 5526,
      "##uli": 5527,
      "accanto": 5528,
      "meccani": 5529,
      "sviluppare": 5530,
      "show": 5531,
      "testimoni": 5532,
      "apprezza": 5533,
      "##terali": 5534,
      "paziente": 5535,
      "##7/": 5536,
      "oppo": 5537,
      "rimo": 5538,
      "stabilisce": 5539,
      "##isca": 5540,
      "##sb": 5541,
      "decidere": 5542,
      "impossibile": 5543,
      "##ormente": 5544,
      "allu": 5545,
      "nascita": 5546,
      "adottare": 5547,
      "canada": 5548,
      "pasto": 5549,
      "gene": 5550,
      "fara": 5551,
      "arrabbia": 5552,
      "##fano": 5553,
      "passegg": 5554,
      "..": 5555,
      "ricordare": 5556,
      "windows": 5557,
      "##.,": 5558,
      "tedesca": 5559,
      "morì": 5560,
      "conferma": 5561,
      "strade": 5562,
      "##lon": 5563,
      "vittima": 5564,
      "composizione": 5565,
      "##erano": 5566,
      "##ortare": 5567,
      "6,": 5568,
      "mc": 5569,
      "dovete": 5570,
      "conclusioni": 5571,
      "campe": 5572,
      "##bole": 5573,
      "dipende": 5574,
      "##stanti": 5575,
      "cinese": 5576,
      "##gran": 5577,
      "dirig": 5578,
      "polizio": 5579,
      "##appar": 5580,
      "presentata": 5581,
      "giudice": 5582,
      "##78": 5583,
      "ricerche": 5584,
      "fattori": 5585,
      "spalle": 5586,
      "aci": 5587,
      "##ata": 5588,
      "spettacolo": 5589,
      "##sfera": 5590,
      "cese": 5591,
      "buone": 5592,
      "monu": 5593,
      "pubblicità": 5594,
      "dubbio": 5595,
      "monito": 5596,
      "luna": 5597,
      "poteri": 5598,
      "poster": 5599,
      "##impa": 5600,
      "concernente": 5601,
      "intervento": 5602,
      "barba": 5603,
      "spiega": 5604,
      "##cine": 5605,
      "metropoli": 5606,
      "##interesse": 5607,
      "applicazioni": 5608,
      "banche": 5609,
      "joe": 5610,
      "privata": 5611,
      "##mò": 5612,
      "montagna": 5613,
      "coordinamento": 5614,
      "vicin": 5615,
      "##ellona": 5616,
      "attor": 5617,
      "altrimenti": 5618,
      "laboratorio": 5619,
      "allon": 5620,
      "##occasione": 5621,
      "##grafico": 5622,
      "varietà": 5623,
      "gua": 5624,
      "deten": 5625,
      "##inti": 5626,
      "jean": 5627,
      "pronta": 5628,
      "parro": 5629,
      "attivo": 5630,
      "pronti": 5631,
      "territori": 5632,
      "disciplina": 5633,
      "autore": 5634,
      "normativa": 5635,
      "emendamenti": 5636,
      "croce": 5637,
      "##assemb": 5638,
      "##.2.": 5639,
      "fres": 5640,
      "personaggio": 5641,
      "impegno": 5642,
      "scene": 5643,
      "permanente": 5644,
      "stella": 5645,
      "annuale": 5646,
      "mich": 5647,
      "##dal": 5648,
      "voci": 5649,
      "##camente": 5650,
      "##bor": 5651,
      "##usi": 5652,
      "avendo": 5653,
      "##ttempo": 5654,
      "antonio": 5655,
      "##iano": 5656,
      "##72": 5657,
      "extra": 5658,
      "##arco": 5659,
      "federale": 5660,
      "percor": 5661,
      "##geni": 5662,
      "destinazione": 5663,
      "magni": 5664,
      "maritti": 5665,
      "brano": 5666,
      "##chiamo": 5667,
      "asciu": 5668,
      "boll": 5669,
      "cioe": 5670,
      "punta": 5671,
      "tocca": 5672,
      "eravamo": 5673,
      "dichiarato": 5674,
      "francesi": 5675,
      "tradizionale": 5676,
      "##mobili": 5677,
      "opportuno": 5678,
      "romano": 5679,
      "inno": 5680,
      "##vile": 5681,
      "trasmissione": 5682,
      "minore": 5683,
      "ovest": 5684,
      "##ffo": 5685,
      "registrato": 5686,
      "tratto": 5687,
      "restri": 5688,
      "immagino": 5689,
      "testimon": 5690,
      "belgio": 5691,
      "voti": 5692,
      "lavorato": 5693,
      "##agricoltura": 5694,
      "pavi": 5695,
      "cass": 5696,
      "copri": 5697,
      "rivista": 5698,
      "strutturali": 5699,
      "suddi": 5700,
      "assicurare": 5701,
      "##onata": 5702,
      "coltiva": 5703,
      "celeb": 5704,
      "1997": 5705,
      "##esercizio": 5706,
      "proposto": 5707,
      "##chino": 5708,
      "##autore": 5709,
      "frattempo": 5710,
      "1998": 5711,
      "rimasto": 5712,
      "##attenzione": 5713,
      "tiro": 5714,
      "##-200": 5715,
      "lum": 5716,
      "##9/": 5717,
      "effettuare": 5718,
      "privati": 5719,
      "silenzio": 5720,
      "##95": 5721,
      "##gegn": 5722,
      "accogli": 5723,
      "ceca": 5724,
      "##abb": 5725,
      "tun": 5726,
      "cd": 5727,
      "personaggi": 5728,
      "consegui": 5729,
      "##mbra": 5730,
      "compati": 5731,
      "##ttato": 5732,
      "batte": 5733,
      "circ": 5734,
      "##glish": 5735,
      "secondi": 5736,
      "##logici": 5737,
      "barcellona": 5738,
      "attorno": 5739,
      "eventuali": 5740,
      "park": 5741,
      "##tentri": 5742,
      "##esame": 5743,
      "recenti": 5744,
      "##glione": 5745,
      "scato": 5746,
      "##44": 5747,
      "mark": 5748,
      "##cialmente": 5749,
      "##notte": 5750,
      "saint": 5751,
      "ottima": 5752,
      "##cho": 5753,
      "legale": 5754,
      "##ade": 5755,
      "istru": 5756,
      "##cial": 5757,
      "mana": 5758,
      "bici": 5759,
      "##usura": 5760,
      "##ander": 5761,
      "pubbliche": 5762,
      "testimonian": 5763,
      "concetto": 5764,
      "##viamo": 5765,
      "##.12.": 5766,
      "turistica": 5767,
      "indicato": 5768,
      "protagonista": 5769,
      "##fficienti": 5770,
      "gentile": 5771,
      "tratti": 5772,
      "avresti": 5773,
      "ministri": 5774,
      "igno": 5775,
      "cambiato": 5776,
      "dista": 5777,
      "turismo": 5778,
      "paesa": 5779,
      "approfon": 5780,
      "collegamenti": 5781,
      "pilota": 5782,
      "importazioni": 5783,
      "vicini": 5784,
      "ragioni": 5785,
      "ricorso": 5786,
      "##han": 5787,
      "imposta": 5788,
      "perse": 5789,
      "incontri": 5790,
      "##ford": 5791,
      "##lini": 5792,
      "ster": 5793,
      "gare": 5794,
      "##insta": 5795,
      "alza": 5796,
      "giù": 5797,
      "##nes": 5798,
      "##ttivi": 5799,
      "copia": 5800,
      "dicia": 5801,
      "danne": 5802,
      "rece": 5803,
      "fammi": 5804,
      "vorre": 5805,
      "tenuta": 5806,
      "agricola": 5807,
      "aggiu": 5808,
      "##teranno": 5809,
      "compli": 5810,
      "6.": 5811,
      "spar": 5812,
      "##intervento": 5813,
      "commenti": 5814,
      "isola": 5815,
      "vantaggi": 5816,
      "stimo": 5817,
      "titolare": 5818,
      "##sio": 5819,
      "##strutture": 5820,
      "##dore": 5821,
      "black": 5822,
      "essenziale": 5823,
      "aman": 5824,
      "pianeta": 5825,
      "##33": 5826,
      "vincere": 5827,
      "##.1.": 5828,
      "modificare": 5829,
      "##ji": 5830,
      "mike": 5831,
      "alimentare": 5832,
      "##librio": 5833,
      "##sato": 5834,
      "permettere": 5835,
      "7,": 5836,
      "##rietà": 5837,
      "##ring": 5838,
      "gard": 5839,
      "allena": 5840,
      "consiste": 5841,
      "##erlo": 5842,
      "soffer": 5843,
      "costituito": 5844,
      "nole": 5845,
      "benessere": 5846,
      "dri": 5847,
      "down": 5848,
      "comunitari": 5849,
      "accettare": 5850,
      "##guardo": 5851,
      "191": 5852,
      "organizzazione": 5853,
      "lati": 5854,
      "vendi": 5855,
      "##ianto": 5856,
      "pc": 5857,
      "##dazione": 5858,
      "##iniziativa": 5859,
      "settentri": 5860,
      "partecipato": 5861,
      "##mann": 5862,
      "mary": 5863,
      "meridionale": 5864,
      "##sion": 5865,
      "verita": 5866,
      "offri": 5867,
      "##ju": 5868,
      "specifici": 5869,
      "cresci": 5870,
      "##onale": 5871,
      "giudizio": 5872,
      "##gori": 5873,
      "evento": 5874,
      "braccia": 5875,
      "edificio": 5876,
      "ray": 5877,
      "selva": 5878,
      "riuscito": 5879,
      "alimentari": 5880,
      "ritardo": 5881,
      "veniva": 5882,
      "##alta": 5883,
      "esperienze": 5884,
      "##zionalità": 5885,
      "resp": 5886,
      "servono": 5887,
      "##estensione": 5888,
      "house": 5889,
      "generalmente": 5890,
      "##lor": 5891,
      "iniziale": 5892,
      "##gitti": 5893,
      "tentativo": 5894,
      "##gici": 5895,
      "##quilla": 5896,
      "##yer": 5897,
      "elemento": 5898,
      "universa": 5899,
      "sugger": 5900,
      "scegli": 5901,
      "meda": 5902,
      "##ction": 5903,
      "tecnici": 5904,
      "potente": 5905,
      "los": 5906,
      "tira": 5907,
      "##pol": 5908,
      "debole": 5909,
      "fame": 5910,
      "##cie": 5911,
      "pru": 5912,
      "##lizzata": 5913,
      "olio": 5914,
      "dirmi": 5915,
      "out": 5916,
      "##assemblea": 5917,
      "insomma": 5918,
      "dirlo": 5919,
      "costituzione": 5920,
      "pesce": 5921,
      "decre": 5922,
      "temi": 5923,
      "nomina": 5924,
      "paci": 5925,
      "##41": 5926,
      "fianco": 5927,
      "teoria": 5928,
      "uscita": 5929,
      "net": 5930,
      "pagine": 5931,
      "spaventa": 5932,
      "madri": 5933,
      "pensando": 5934,
      "card": 5935,
      "semina": 5936,
      "rinno": 5937,
      "successiva": 5938,
      "iniziò": 5939,
      "pensiero": 5940,
      "taluni": 5941,
      "##dali": 5942,
      "##gy": 5943,
      "##31": 5944,
      "##8)": 5945,
      "##tun": 5946,
      "##messe": 5947,
      "diam": 5948,
      "150": 5949,
      "significato": 5950,
      "##otto": 5951,
      "dando": 5952,
      "potenziale": 5953,
      "finche": 5954,
      "sequ": 5955,
      "attrezza": 5956,
      "sessione": 5957,
      "innamo": 5958,
      "tradu": 5959,
      "##.10": 5960,
      "socio": 5961,
      "##opp": 5962,
      "compreso": 5963,
      "militari": 5964,
      "puttana": 5965,
      "sappia": 5966,
      "farsi": 5967,
      "sostenibile": 5968,
      "##ttare": 5969,
      "saputo": 5970,
      "##get": 5971,
      "fermo": 5972,
      "detec": 5973,
      "oddio": 5974,
      "prosegui": 5975,
      "trovere": 5976,
      "famoso": 5977,
      "esterno": 5978,
      "cavallo": 5979,
      "medici": 5980,
      "cere": 5981,
      "giocatore": 5982,
      "soldati": 5983,
      "comportamento": 5984,
      "braccio": 5985,
      "vicina": 5986,
      "novità": 5987,
      "materie": 5988,
      "cosci": 5989,
      "##stino": 5990,
      "caldo": 5991,
      "attacco": 5992,
      "sorpresa": 5993,
      "##sma": 5994,
      "##esistenza": 5995,
      "negoziati": 5996,
      "tiene": 5997,
      "critica": 5998,
      "dover": 5999,
      "ripet": 6000,
      "##grafie": 6001,
      "1996": 6002,
      "poche": 6003,
      "##adozione": 6004,
      "##vest": 6005,
      "##cus": 6006,
      "richiesto": 6007,
      "##fero": 6008,
      "##donna": 6009,
      "stabilire": 6010,
      "bis": 6011,
      "cinemato": 6012,
      "borsa": 6013,
      "truppe": 6014,
      "comun": 6015,
      "esclusivamente": 6016,
      "##derci": 6017,
      "riba": 6018,
      "##ssibilità": 6019,
      "vul": 6020,
      "meteo": 6021,
      "##imento": 6022,
      "##ku": 6023,
      "english": 6024,
      "comandante": 6025,
      "episodi": 6026,
      "sovie": 6027,
      "##-6": 6028,
      "catte": 6029,
      "fretta": 6030,
      "allar": 6031,
      "##lanza": 6032,
      "dotato": 6033,
      "farai": 6034,
      "##84": 6035,
      "preval": 6036,
      "##ongono": 6037,
      "##denzia": 6038,
      "processi": 6039,
      "soggetto": 6040,
      "189": 6041,
      "bron": 6042,
      "secoli": 6043,
      "dammi": 6044,
      "lussemb": 6045,
      "##introduzione": 6046,
      "##any": 6047,
      "desiderio": 6048,
      "##rendi": 6049,
      "##cela": 6050,
      "##ville": 6051,
      "##cilia": 6052,
      "##tualmente": 6053,
      "israele": 6054,
      "##ettato": 6055,
      "9,": 6056,
      "##state": 6057,
      "debba": 6058,
      "##teriore": 6059,
      "sena": 6060,
      "##ensione": 6061,
      "##istan": 6062,
      "##logna": 6063,
      "sensa": 6064,
      "benissimo": 6065,
      "##utati": 6066,
      "quantita": 6067,
      "##ingresso": 6068,
      "##raneamente": 6069,
      "##geno": 6070,
      "adi": 6071,
      "##verà": 6072,
      "segnale": 6073,
      "sabato": 6074,
      "capace": 6075,
      "neu": 6076,
      "##7)": 6077,
      "dispositivi": 6078,
      "##eta": 6079,
      "visitare": 6080,
      "vento": 6081,
      "guardi": 6082,
      "war": 6083,
      "fondata": 6084,
      "avvocato": 6085,
      "violenza": 6086,
      "rimb": 6087,
      "free": 6088,
      "prigioni": 6089,
      "##ht": 6090,
      "avrai": 6091,
      "omo": 6092,
      "esti": 6093,
      "organismi": 6094,
      "##endario": 6095,
      "finestra": 6096,
      "##ite": 6097,
      "diffusione": 6098,
      "foresta": 6099,
      "leon": 6100,
      "malattie": 6101,
      "privacy": 6102,
      "##troppo": 6103,
      "immer": 6104,
      "##pertura": 6105,
      "ungh": 6106,
      "pensione": 6107,
      "dedicata": 6108,
      "##vanta": 6109,
      "trovi": 6110,
      "tempio": 6111,
      "rigi": 6112,
      "serata": 6113,
      "corto": 6114,
      "specialmente": 6115,
      "cy": 6116,
      "##........": 6117,
      "##strono": 6118,
      "pelli": 6119,
      "solida": 6120,
      "differenti": 6121,
      "ml": 6122,
      "trasformazione": 6123,
      "irri": 6124,
      "posizioni": 6125,
      "zucchero": 6126,
      "sanno": 6127,
      "approccio": 6128,
      "buoni": 6129,
      "##ago": 6130,
      "##lun": 6131,
      "vite": 6132,
      "culturali": 6133,
      "##tomi": 6134,
      "consoli": 6135,
      "viaggi": 6136,
      "asc": 6137,
      "realta": 6138,
      "##ness": 6139,
      "##toni": 6140,
      "cattolica": 6141,
      "attiva": 6142,
      "##melo": 6143,
      "##ssegna": 6144,
      "##xy": 6145,
      "##gene": 6146,
      "detective": 6147,
      "letti": 6148,
      "positivo": 6149,
      "ipo": 6150,
      "##bil": 6151,
      "##done": 6152,
      "impegni": 6153,
      "rossa": 6154,
      "shi": 6155,
      "cle": 6156,
      "contribuire": 6157,
      "##istituto": 6158,
      "torino": 6159,
      "##0.000": 6160,
      "terapia": 6161,
      "##-199": 6162,
      "##gitto": 6163,
      "##origine": 6164,
      "pero": 6165,
      "whi": 6166,
      "espresso": 6167,
      "henry": 6168,
      "##cque": 6169,
      "##unti": 6170,
      "ron": 6171,
      "vener": 6172,
      "occupazione": 6173,
      "##iness": 6174,
      "disti": 6175,
      "cattedra": 6176,
      "consta": 6177,
      "##mbia": 6178,
      "allegato": 6179,
      "smettila": 6180,
      "utilizzata": 6181,
      "coer": 6182,
      "animale": 6183,
      "incidente": 6184,
      "##cini": 6185,
      "##dute": 6186,
      "risposte": 6187,
      "propor": 6188,
      "istruzione": 6189,
      "bei": 6190,
      "defin": 6191,
      "##wood": 6192,
      "finanziarie": 6193,
      "riparti": 6194,
      "##sare": 6195,
      "33": 6196,
      "istituisce": 6197,
      "##mosfera": 6198,
      "pressi": 6199,
      "definire": 6200,
      "tracce": 6201,
      "##-9": 6202,
      "mobile": 6203,
      "rim": 6204,
      "antico": 6205,
      "clicca": 6206,
      "medicinali": 6207,
      "##sciamo": 6208,
      "##eu": 6209,
      "##cipro": 6210,
      "successivi": 6211,
      "pronuncia": 6212,
      "esemp": 6213,
      "check": 6214,
      "immobiliare": 6215,
      "verranno": 6216,
      "rib": 6217,
      "hel": 6218,
      "stranieri": 6219,
      "elen": 6220,
      "##tani": 6221,
      "navigazione": 6222,
      "##mila": 6223,
      "##spa": 6224,
      "##tuo": 6225,
      "direi": 6226,
      "terrazza": 6227,
      "regalo": 6228,
      "##sin": 6229,
      "##marca": 6230,
      "##fast": 6231,
      "186": 6232,
      "inva": 6233,
      "##cker": 6234,
      "immagine": 6235,
      "consentire": 6236,
      "personalizza": 6237,
      "##bro": 6238,
      "minori": 6239,
      "vince": 6240,
      "##rs": 6241,
      "##ssibili": 6242,
      "governi": 6243,
      "canzoni": 6244,
      "protegg": 6245,
      "greco": 6246,
      "robert": 6247,
      "##ship": 6248,
      "minera": 6249,
      "roy": 6250,
      "##uscita": 6251,
      "competenza": 6252,
      "sedi": 6253,
      "berlino": 6254,
      "doganale": 6255,
      "xx": 6256,
      "##24": 6257,
      "sea": 6258,
      "chiara": 6259,
      "##metter": 6260,
      "conge": 6261,
      "familiare": 6262,
      "reca": 6263,
      "##archite": 6264,
      "##riamente": 6265,
      "continui": 6266,
      "##dò": 6267,
      "desidero": 6268,
      "saperlo": 6269,
      "disoccupazione": 6270,
      "cera": 6271,
      "isa": 6272,
      "romanzo": 6273,
      "##dam": 6274,
      "tranquilla": 6275,
      "svezia": 6276,
      "##fin": 6277,
      "avviene": 6278,
      "zio": 6279,
      "##83": 6280,
      "cervello": 6281,
      "avver": 6282,
      "potrai": 6283,
      "##appartamento": 6284,
      "denuncia": 6285,
      "composta": 6286,
      "lumino": 6287,
      "##pole": 6288,
      "##torni": 6289,
      "sente": 6290,
      "ciascuna": 6291,
      "rispettivamente": 6292,
      "fuggi": 6293,
      "giuridica": 6294,
      "##cchiata": 6295,
      "possie": 6296,
      "punte": 6297,
      "patrimonio": 6298,
      "##gando": 6299,
      "discorso": 6300,
      "fornisce": 6301,
      "americano": 6302,
      "rub": 6303,
      "infor": 6304,
      "##uzione": 6305,
      "amica": 6306,
      "gian": 6307,
      "##loni": 6308,
      "##uts": 6309,
      "tariffa": 6310,
      "sostan": 6311,
      "##elet": 6312,
      "##rito": 6313,
      "rivela": 6314,
      "nasce": 6315,
      "droga": 6316,
      "imparare": 6317,
      "##fran": 6318,
      "evidenzia": 6319,
      "vecchi": 6320,
      "##arrivo": 6321,
      "lomb": 6322,
      "nata": 6323,
      "svolto": 6324,
      "audio": 6325,
      "##orrere": 6326,
      "armoni": 6327,
      "85": 6328,
      "##26": 6329,
      "chiusura": 6330,
      "ville": 6331,
      "usando": 6332,
      "solamente": 6333,
      "statistiche": 6334,
      "##ziali": 6335,
      "irre": 6336,
      "agricoli": 6337,
      "##infer": 6338,
      "neo": 6339,
      "idio": 6340,
      "##orsi": 6341,
      "rinuncia": 6342,
      "applicare": 6343,
      "recipro": 6344,
      "##nali": 6345,
      "scritta": 6346,
      "link": 6347,
      "##ttle": 6348,
      "appari": 6349,
      "capisci": 6350,
      "elevato": 6351,
      "moderna": 6352,
      "motiva": 6353,
      "buongiorno": 6354,
      "ristoranti": 6355,
      "cantante": 6356,
      "copertura": 6357,
      "esterni": 6358,
      "antica": 6359,
      "tene": 6360,
      "familiari": 6361,
      "ita": 6362,
      "##pina": 6363,
      "intito": 6364,
      "##zer": 6365,
      "minima": 6366,
      "veicolo": 6367,
      "rafforzare": 6368,
      "consiglia": 6369,
      "conflitto": 6370,
      "persino": 6371,
      "##innova": 6372,
      "##ges": 6373,
      "arrivando": 6374,
      "episodio": 6375,
      "server": 6376,
      "colpito": 6377,
      "nutri": 6378,
      "scienza": 6379,
      "risparmia": 6380,
      "assegna": 6381,
      "direttive": 6382,
      "##istituzione": 6383,
      "preghiera": 6384,
      "emissioni": 6385,
      "ob": 6386,
      "##unzione": 6387,
      "gusto": 6388,
      "affida": 6389,
      "uscito": 6390,
      "organizzato": 6391,
      "preferiti": 6392,
      "errori": 6393,
      "disegno": 6394,
      "ovunque": 6395,
      "eva": 6396,
      "generazione": 6397,
      "lavorando": 6398,
      "##evoluzione": 6399,
      "coi": 6400,
      "##rt": 6401,
      "freddo": 6402,
      "compresi": 6403,
      "galleria": 6404,
      "riuscire": 6405,
      "ubi": 6406,
      "##busti": 6407,
      "continuo": 6408,
      "gul": 6409,
      "##augu": 6410,
      "imm": 6411,
      "pomeri": 6412,
      "deriva": 6413,
      "##llazione": 6414,
      "##grafiche": 6415,
      "purtroppo": 6416,
      "lusso": 6417,
      "dimostrato": 6418,
      "perce": 6419,
      "frutta": 6420,
      "appuntamento": 6421,
      "antichi": 6422,
      "attuali": 6423,
      "turchia": 6424,
      "sapeva": 6425,
      "rovina": 6426,
      "cogno": 6427,
      "ossia": 6428,
      "gestire": 6429,
      "irlanda": 6430,
      "##21": 6431,
      "altezza": 6432,
      "perfettamente": 6433,
      "stabilito": 6434,
      "##aspetto": 6435,
      "classificazione": 6436,
      "richard": 6437,
      "1994": 6438,
      "##esecuzione": 6439,
      "##yle": 6440,
      "##demia": 6441,
      "prescri": 6442,
      "##work": 6443,
      "tessuto": 6444,
      "segretario": 6445,
      "potranno": 6446,
      "scarpe": 6447,
      "nick": 6448,
      "vicen": 6449,
      "denti": 6450,
      "##incontro": 6451,
      "inqu": 6452,
      "compensa": 6453,
      "##zzon": 6454,
      "8,": 6455,
      "obblighi": 6456,
      "##acquisto": 6457,
      "##eva": 6458,
      "##grado": 6459,
      "tennis": 6460,
      "utilizzo": 6461,
      "ful": 6462,
      "##arre": 6463,
      "wow": 6464,
      "africa": 6465,
      "##rur": 6466,
      "sfida": 6467,
      "sviluppato": 6468,
      "elettrica": 6469,
      "lampa": 6470,
      "sentenza": 6471,
      "recupero": 6472,
      "piaci": 6473,
      "##angelo": 6474,
      "automatica": 6475,
      "##acca": 6476,
      "seno": 6477,
      "infrastrutture": 6478,
      "amministrazione": 6479,
      "##biti": 6480,
      "determinare": 6481,
      "gioia": 6482,
      "tonnella": 6483,
      "1995": 6484,
      "nera": 6485,
      "##impatto": 6486,
      "##king": 6487,
      "botti": 6488,
      "##gina": 6489,
      "##ssuto": 6490,
      "ognuno": 6491,
      "stabilità": 6492,
      "##apertura": 6493,
      "svolta": 6494,
      "spirituale": 6495,
      "##opport": 6496,
      "borgo": 6497,
      "age": 6498,
      "recante": 6499,
      "considerata": 6500,
      "fasc": 6501,
      "inde": 6502,
      "odio": 6503,
      "martin": 6504,
      "spesa": 6505,
      "champ": 6506,
      "##tella": 6507,
      "svolgere": 6508,
      "ponti": 6509,
      "mus": 6510,
      "accedere": 6511,
      "brow": 6512,
      "università": 6513,
      "procura": 6514,
      "400": 6515,
      "west": 6516,
      "##cita": 6517,
      "luca": 6518,
      "decise": 6519,
      "polvere": 6520,
      "##55": 6521,
      "##azia": 6522,
      "(200": 6523,
      "appre": 6524,
      "visite": 6525,
      "##rino": 6526,
      "luigi": 6527,
      "destinato": 6528,
      "##iva": 6529,
      "approvato": 6530,
      "##ban": 6531,
      "##sy": 6532,
      "##arto": 6533,
      "riscaldamento": 6534,
      "##inci": 6535,
      "°": 6536,
      "eliminare": 6537,
      "appropria": 6538,
      "vestiti": 6539,
      "togli": 6540,
      "diocesi": 6541,
      "##quo": 6542,
      "licenzia": 6543,
      "assor": 6544,
      "rose": 6545,
      "aggre": 6546,
      "relativamente": 6547,
      "ambientali": 6548,
      "##-4": 6549,
      "collabora": 6550,
      "religione": 6551,
      "racconta": 6552,
      "deposito": 6553,
      "praticamente": 6554,
      "##gratu": 6555,
      "storie": 6556,
      "superare": 6557,
      "##ón": 6558,
      "incluso": 6559,
      "##71": 6560,
      "prendo": 6561,
      "medesi": 6562,
      "##81": 6563,
      "configu": 6564,
      "credevo": 6565,
      "##vor": 6566,
      "dodici": 6567,
      "facente": 6568,
      "casino": 6569,
      "##.\"": 6570,
      "conservazione": 6571,
      "individ": 6572,
      "ty": 6573,
      "schermo": 6574,
      "seduta": 6575,
      "professore": 6576,
      "bandi": 6577,
      "rimase": 6578,
      "##integrazione": 6579,
      "semplici": 6580,
      "situazioni": 6581,
      "##impe": 6582,
      "stanziamenti": 6583,
      "rit": 6584,
      "##23": 6585,
      "settentrionale": 6586,
      "provi": 6587,
      "primavera": 6588,
      "##impero": 6589,
      "prendendo": 6590,
      "escur": 6591,
      "epi": 6592,
      "tela": 6593,
      "##sho": 6594,
      "capitali": 6595,
      "lussemburgo": 6596,
      "##ye": 6597,
      "presentano": 6598,
      "##esimo": 6599,
      "segni": 6600,
      "abita": 6601,
      "biblioteca": 6602,
      "##29": 6603,
      "discri": 6604,
      "##burgo": 6605,
      "sma": 6606,
      "xii": 6607,
      "popolari": 6608,
      "pista": 6609,
      "##burg": 6610,
      "brasile": 6611,
      "##versario": 6612,
      "ono": 6613,
      "##gola": 6614,
      "dettaglio": 6615,
      "##mendo": 6616,
      "##atto": 6617,
      "digitale": 6618,
      "russo": 6619,
      "frequenza": 6620,
      "momenti": 6621,
      "pmi": 6622,
      "##iormente": 6623,
      "stadio": 6624,
      "stupido": 6625,
      "costu": 6626,
      "dipendenti": 6627,
      "periodi": 6628,
      "stronza": 6629,
      "##enne": 6630,
      "xvii": 6631,
      "fabbricazione": 6632,
      "bed": 6633,
      "sacra": 6634,
      "muro": 6635,
      "##istico": 6636,
      "##ansione": 6637,
      "interamente": 6638,
      "ripe": 6639,
      "matrimon": 6640,
      "calda": 6641,
      "enorme": 6642,
      "##ence": 6643,
      "svolge": 6644,
      "valutare": 6645,
      "simbolo": 6646,
      "confine": 6647,
      "confronto": 6648,
      "soddisfare": 6649,
      "##pper": 6650,
      "55": 6651,
      "vuoto": 6652,
      "##dt": 6653,
      "mediterraneo": 6654,
      "consen": 6655,
      "opzioni": 6656,
      "anne": 6657,
      "vivi": 6658,
      "ospedale": 6659,
      "sfo": 6660,
      "ritra": 6661,
      "cellulare": 6662,
      "fornito": 6663,
      "##gos": 6664,
      "ricco": 6665,
      "affatto": 6666,
      "larga": 6667,
      "colonna": 6668,
      "norve": 6669,
      "tossi": 6670,
      "tavola": 6671,
      "residenti": 6672,
      "quegli": 6673,
      "scoperta": 6674,
      "anticipo": 6675,
      "proprietario": 6676,
      "##uiti": 6677,
      "romani": 6678,
      "sur": 6679,
      "beneficia": 6680,
      "##...]": 6681,
      "##dizioni": 6682,
      "##effetto": 6683,
      "negozi": 6684,
      "##erico": 6685,
      "von": 6686,
      "comprare": 6687,
      "##73": 6688,
      "campeggio": 6689,
      "previsti": 6690,
      "suono": 6691,
      "##ond": 6692,
      "esecuzione": 6693,
      "brava": 6694,
      "##vamento": 6695,
      "passeggeri": 6696,
      "scia": 6697,
      "##logio": 6698,
      "##0)": 6699,
      "sembrava": 6700,
      "somma": 6701,
      "##core": 6702,
      "troviamo": 6703,
      "tenendo": 6704,
      "ry": 6705,
      "fila": 6706,
      "tranquillo": 6707,
      "ulteriormente": 6708,
      "polonia": 6709,
      "triste": 6710,
      "tradizionali": 6711,
      "charles": 6712,
      "moderno": 6713,
      "carro": 6714,
      "college": 6715,
      "cavo": 6716,
      "incor": 6717,
      "compresa": 6718,
      "##rittura": 6719,
      "##cheo": 6720,
      "procedere": 6721,
      "rappresentano": 6722,
      "##erv": 6723,
      "potrete": 6724,
      "duro": 6725,
      "##giona": 6726,
      "play": 6727,
      "##identi": 6728,
      "preventivo": 6729,
      "##logiche": 6730,
      "1992": 6731,
      "tasse": 6732,
      "##arli": 6733,
      "sorpren": 6734,
      "pier": 6735,
      "##scendo": 6736,
      "piacerebbe": 6737,
      "7.": 6738,
      "##ttica": 6739,
      "##let": 6740,
      "legitti": 6741,
      "business": 6742,
      "##talmente": 6743,
      "break": 6744,
      "ip": 6745,
      "sostanza": 6746,
      "##gel": 6747,
      "azz": 6748,
      "apertura": 6749,
      "##andosi": 6750,
      "##lante": 6751,
      "##importazione": 6752,
      "addirittura": 6753,
      "##load": 6754,
      "sembrano": 6755,
      "interessato": 6756,
      "combatti": 6757,
      "effettivamente": 6758,
      "open": 6759,
      "##como": 6760,
      "##assistenza": 6761,
      "licenza": 6762,
      "osservazioni": 6763,
      "65": 6764,
      "danimarca": 6765,
      "residenza": 6766,
      "equipa": 6767,
      "romana": 6768,
      "riceve": 6769,
      "taglio": 6770,
      "##ghese": 6771,
      "ciascun": 6772,
      "nazione": 6773,
      "##occhio": 6774,
      "##pito": 6775,
      "vicinanze": 6776,
      "hard": 6777,
      "prose": 6778,
      "scientifica": 6779,
      "consultazione": 6780,
      "aerop": 6781,
      "recentemente": 6782,
      "##vra": 6783,
      "##zzetta": 6784,
      "fascia": 6785,
      "calendario": 6786,
      "occa": 6787,
      "dirti": 6788,
      "analizza": 6789,
      "##destra": 6790,
      "scola": 6791,
      "##red": 6792,
      "versioni": 6793,
      "##pli": 6794,
      "##zialmente": 6795,
      "avvicina": 6796,
      "volto": 6797,
      "##adesione": 6798,
      "lasc": 6799,
      "produrre": 6800,
      "mondiali": 6801,
      "##ospedale": 6802,
      "##viste": 6803,
      "##presi": 6804,
      "contratti": 6805,
      "concerto": 6806,
      "spazi": 6807,
      "regolare": 6808,
      "acu": 6809,
      "1993": 6810,
      "catena": 6811,
      "prestito": 6812,
      "##utente": 6813,
      "esterna": 6814,
      "dominio": 6815,
      "diretti": 6816,
      "ascol": 6817,
      "apparti": 6818,
      "carni": 6819,
      "##02": 6820,
      "giocato": 6821,
      "##ricato": 6822,
      "deriv": 6823,
      "browser": 6824,
      "apre": 6825,
      "sveglia": 6826,
      "composi": 6827,
      "reazione": 6828,
      "nemico": 6829,
      "fio": 6830,
      "##giudi": 6831,
      "virus": 6832,
      "dintorni": 6833,
      "giove": 6834,
      "##ah": 6835,
      "street": 6836,
      "('": 6837,
      "##letter": 6838,
      "perd": 6839,
      "termina": 6840,
      "ringrazio": 6841,
      "dovranno": 6842,
      "trasporta": 6843,
      "##lui": 6844,
      "ricche": 6845,
      "##ici": 6846,
      "privile": 6847,
      "##ceo": 6848,
      "##gone": 6849,
      "tessi": 6850,
      "inn": 6851,
      "jan": 6852,
      "crista": 6853,
      "verificare": 6854,
      "quad": 6855,
      "messico": 6856,
      "cr": 6857,
      "messaggi": 6858,
      "##mattina": 6859,
      "##34": 6860,
      "##lemme": 6861,
      "uguale": 6862,
      "##derti": 6863,
      "king": 6864,
      "definito": 6865,
      "##erata": 6866,
      "applicabile": 6867,
      "onorevoli": 6868,
      "finora": 6869,
      "monaco": 6870,
      "democrazia": 6871,
      "##innovazione": 6872,
      "##ldo": 6873,
      "##luogo": 6874,
      "albergo": 6875,
      "terribile": 6876,
      "manuten": 6877,
      "##antica": 6878,
      "raffi": 6879,
      "##69": 6880,
      "##inda": 6881,
      "pomeriggio": 6882,
      "##giche": 6883,
      "sorveglianza": 6884,
      "riven": 6885,
      "##marsi": 6886,
      "avevamo": 6887,
      "ufficialmente": 6888,
      "altresì": 6889,
      "adegu": 6890,
      "farci": 6891,
      "pubblicata": 6892,
      "##obbli": 6893,
      "(199": 6894,
      "indispensa": 6895,
      "pubblicazioni": 6896,
      "##goglio": 6897,
      "##zionamento": 6898,
      "##inqu": 6899,
      "preoccuparti": 6900,
      "##stein": 6901,
      "##ppie": 6902,
      "coesione": 6903,
      "##tia": 6904,
      "incredibile": 6905,
      "baga": 6906,
      "schifo": 6907,
      "rinnova": 6908,
      "##/10": 6909,
      "sun": 6910,
      "##rl": 6911,
      "telecom": 6912,
      "##agente": 6913,
      "ruba": 6914,
      "vel": 6915,
      "cambi": 6916,
      "##assa": 6917,
      "saremo": 6918,
      "##alti": 6919,
      "attuazione": 6920,
      "gla": 6921,
      "barche": 6922,
      "cappella": 6923,
      "nucleare": 6924,
      "##amministrazione": 6925,
      "potesse": 6926,
      "inaugu": 6927,
      "##zzina": 6928,
      "competente": 6929,
      "pane": 6930,
      "invita": 6931,
      "wash": 6932,
      "televisione": 6933,
      "raggiunge": 6934,
      "iniziativa": 6935,
      "include": 6936,
      "cavali": 6937,
      "##indirizzo": 6938,
      "converti": 6939,
      "vii": 6940,
      "##onda": 6941,
      "istruzioni": 6942,
      "inclusi": 6943,
      "more": 6944,
      "disabili": 6945,
      "americani": 6946,
      "48": 6947,
      "##ensore": 6948,
      "ceri": 6949,
      "##enz": 6950,
      "gira": 6951,
      "bologna": 6952,
      "pacchetto": 6953,
      "piatto": 6954,
      "##ortazione": 6955,
      "##umani": 6956,
      "arrivati": 6957,
      "totali": 6958,
      "cause": 6959,
      "##impie": 6960,
      "rurale": 6961,
      "intensi": 6962,
      "##vente": 6963,
      "competenti": 6964,
      "ottiene": 6965,
      "prenotazioni": 6966,
      "##'11": 6967,
      "chirur": 6968,
      "vasta": 6969,
      "́": 6970,
      "cerchi": 6971,
      "condotta": 6972,
      "costruita": 6973,
      "92": 6974,
      "tagli": 6975,
      "fr": 6976,
      "tedeschi": 6977,
      "latino": 6978,
      "fatte": 6979,
      "##contra": 6980,
      "congratu": 6981,
      "bellissima": 6982,
      "##mene": 6983,
      "lune": 6984,
      "commento": 6985,
      "contributi": 6986,
      "1990": 6987,
      "marte": 6988,
      "spara": 6989,
      "lisb": 6990,
      "##entrata": 6991,
      "dolo": 6992,
      "basata": 6993,
      "entrata": 6994,
      "riva": 6995,
      "assunto": 6996,
      "##mpagne": 6997,
      "sim": 6998,
      "grazia": 6999,
      "##trale": 7000,
      "sfon": 7001,
      "##fornia": 7002,
      "manda": 7003,
      "appartiene": 7004,
      "pola": 7005,
      "compiti": 7006,
      "costituiscono": 7007,
      "##ara": 7008,
      "##than": 7009,
      "batti": 7010,
      "##letto": 7011,
      "molta": 7012,
      "mole": 7013,
      "pover": 7014,
      "newsletter": 7015,
      "passione": 7016,
      "##05": 7017,
      "circostanze": 7018,
      "candidati": 7019,
      "vivono": 7020,
      "sosti": 7021,
      "ottimi": 7022,
      "fasi": 7023,
      "stamp": 7024,
      "intelligente": 7025,
      "tex": 7026,
      "giallo": 7027,
      "##ttamento": 7028,
      "australia": 7029,
      "francis": 7030,
      "trasfor": 7031,
      "raffigu": 7032,
      "piattaforma": 7033,
      "classico": 7034,
      "aerei": 7035,
      "stor": 7036,
      "moderni": 7037,
      "##cciono": 7038,
      "ampli": 7039,
      "entrate": 7040,
      "risal": 7041,
      "considerare": 7042,
      "##imperatore": 7043,
      "10,": 7044,
      "##ranei": 7045,
      "studente": 7046,
      "##edizione": 7047,
      "socc": 7048,
      "accre": 7049,
      "imperia": 7050,
      "sessuale": 7051,
      "storica": 7052,
      "mate": 7053,
      "alberi": 7054,
      "maschile": 7055,
      "determinato": 7056,
      "##bby": 7057,
      "arro": 7058,
      "sorta": 7059,
      "##aumento": 7060,
      "champion": 7061,
      "##terale": 7062,
      "caduta": 7063,
      "elettro": 7064,
      "gala": 7065,
      "jane": 7066,
      "##cel": 7067,
      "##ml": 7068,
      "charlie": 7069,
      "curio": 7070,
      "possesso": 7071,
      "eccellente": 7072,
      "##dotte": 7073,
      "pagamenti": 7074,
      "realizzata": 7075,
      "##visa": 7076,
      "##dette": 7077,
      "##%.": 7078,
      "##atta": 7079,
      "suite": 7080,
      "introdu": 7081,
      "##importo": 7082,
      "comfort": 7083,
      "uffici": 7084,
      "veter": 7085,
      "##torie": 7086,
      "istan": 7087,
      "sorge": 7088,
      "tassi": 7089,
      "##vd": 7090,
      "salvo": 7091,
      "dom": 7092,
      "onorevole": 7093,
      "vers": 7094,
      "notare": 7095,
      "bas": 7096,
      "esterne": 7097,
      "associazioni": 7098,
      "metalli": 7099,
      "##goro": 7100,
      "differenze": 7101,
      "femmine": 7102,
      "##disce": 7103,
      "bil": 7104,
      "pr": 7105,
      "colp": 7106,
      "##minante": 7107,
      "improv": 7108,
      "facoltà": 7109,
      "##ggiate": 7110,
      "mag": 7111,
      "stretto": 7112,
      "modulo": 7113,
      "concentrazione": 7114,
      "omicidio": 7115,
      "parten": 7116,
      "manutenzione": 7117,
      "##ski": 7118,
      "##peri": 7119,
      "riconosciuto": 7120,
      "realizzati": 7121,
      "entrato": 7122,
      "##ple": 7123,
      "indiri": 7124,
      "##gas": 7125,
      "ala": 7126,
      "verti": 7127,
      "manuale": 7128,
      "frutto": 7129,
      "concessione": 7130,
      "ebrei": 7131,
      "ridi": 7132,
      "washington": 7133,
      "jen": 7134,
      "##anna": 7135,
      "##28": 7136,
      "bianchi": 7137,
      "disputa": 7138,
      "meccanismo": 7139,
      "spre": 7140,
      "impatto": 7141,
      "elettronica": 7142,
      "deposi": 7143,
      "tonnellate": 7144,
      "95": 7145,
      "ambito": 7146,
      "maglia": 7147,
      "medicinale": 7148,
      "quante": 7149,
      "ulteriore": 7150,
      "37": 7151,
      "ingegn": 7152,
      "##onimo": 7153,
      "##monte": 7154,
      "besti": 7155,
      "inserito": 7156,
      "imba": 7157,
      "voler": 7158,
      "##win": 7159,
      "##lone": 7160,
      "##stazione": 7161,
      "##naia": 7162,
      "nemici": 7163,
      "##tanea": 7164,
      "consenso": 7165,
      "adatto": 7166,
      "##rgli": 7167,
      "marche": 7168,
      "inuti": 7169,
      "gold": 7170,
      "sorri": 7171,
      "league": 7172,
      "##insieme": 7173,
      "thomas": 7174,
      "risponde": 7175,
      "alp": 7176,
      "##effica": 7177,
      "incontrato": 7178,
      "eccessi": 7179,
      "##cene": 7180,
      "onde": 7181,
      "piatti": 7182,
      "##onici": 7183,
      "sostituito": 7184,
      "aro": 7185,
      "##oli": 7186,
      "attesa": 7187,
      "ballo": 7188,
      "sforzo": 7189,
      "evan": 7190,
      "cristiana": 7191,
      "liti": 7192,
      "##estero": 7193,
      "##bn": 7194,
      "##fu": 7195,
      "mel": 7196,
      "intero": 7197,
      "##mos": 7198,
      "##scar": 7199,
      "orientamenti": 7200,
      "rappresentante": 7201,
      "##iando": 7202,
      "calo": 7203,
      "dre": 7204,
      "altretta": 7205,
      "bob": 7206,
      "##.00": 7207,
      "corona": 7208,
      "interessate": 7209,
      "##gamento": 7210,
      "##ugh": 7211,
      "dramma": 7212,
      "marti": 7213,
      "she": 7214,
      "tappe": 7215,
      "amiche": 7216,
      "automobili": 7217,
      "##zando": 7218,
      "puni": 7219,
      "##66": 7220,
      "ricca": 7221,
      "compleanno": 7222,
      "chitar": 7223,
      "zero": 7224,
      "##cht": 7225,
      "chiusa": 7226,
      "##ula": 7227,
      "cellule": 7228,
      "pienamente": 7229,
      "prospettiva": 7230,
      "adottate": 7231,
      "inventa": 7232,
      "acci": 7233,
      "accettato": 7234,
      "accel": 7235,
      "iva": 7236,
      "##guardia": 7237,
      "##ab": 7238,
      "##ingle": 7239,
      "reddito": 7240,
      "seri": 7241,
      "attento": 7242,
      "talune": 7243,
      "movimenti": 7244,
      "##potesi": 7245,
      "sarde": 7246,
      "scrive": 7247,
      "##mbascia": 7248,
      "moneta": 7249,
      "accen": 7250,
      "34": 7251,
      "sconto": 7252,
      "rossi": 7253,
      "battuto": 7254,
      "progettazione": 7255,
      "nonna": 7256,
      "scusami": 7257,
      "indicazioni": 7258,
      "occu": 7259,
      "perfe": 7260,
      "legati": 7261,
      "combinazione": 7262,
      "debito": 7263,
      "radica": 7264,
      "marcia": 7265,
      "costri": 7266,
      "iscriviti": 7267,
      "vestito": 7268,
      "sguardo": 7269,
      "felici": 7270,
      "tornata": 7271,
      "1988": 7272,
      "##diso": 7273,
      "romania": 7274,
      "coscienza": 7275,
      "##africa": 7276,
      "cost": 7277,
      "regista": 7278,
      "##sha": 7279,
      "prevenzione": 7280,
      "cada": 7281,
      "canto": 7282,
      "##ning": 7283,
      "riunioni": 7284,
      "tranne": 7285,
      "qualcun": 7286,
      "dono": 7287,
      "diceva": 7288,
      "##bie": 7289,
      "campionati": 7290,
      "##stia": 7291,
      "patto": 7292,
      "angeles": 7293,
      "segreti": 7294,
      "usata": 7295,
      "combusti": 7296,
      "185": 7297,
      "ridotto": 7298,
      "nervo": 7299,
      "”,": 7300,
      "[...]": 7301,
      "capoluogo": 7302,
      "##tions": 7303,
      "assemb": 7304,
      "operativo": 7305,
      "razza": 7306,
      "##sson": 7307,
      "uccelli": 7308,
      "##\":": 7309,
      "cattedrale": 7310,
      "©": 7311,
      "rimuo": 7312,
      "diede": 7313,
      "angolo": 7314,
      "cani": 7315,
      "storici": 7316,
      "1985": 7317,
      "fuga": 7318,
      "ossi": 7319,
      "##ttuta": 7320,
      "1987": 7321,
      "anziani": 7322,
      "amministrativa": 7323,
      "##chestra": 7324,
      "chiedendo": 7325,
      "centinaia": 7326,
      "scatola": 7327,
      "fenomeno": 7328,
      "esercizio": 7329,
      "bill": 7330,
      "odia": 7331,
      "quinto": 7332,
      "##mazione": 7333,
      "##100": 7334,
      "ost": 7335,
      "pazzo": 7336,
      "coman": 7337,
      "california": 7338,
      "riuscì": 7339,
      "##wan": 7340,
      "live": 7341,
      "professionali": 7342,
      "getta": 7343,
      "rivolta": 7344,
      "1989": 7345,
      "benvenuto": 7346,
      "inviare": 7347,
      "sconfitta": 7348,
      "dichiara": 7349,
      "bern": 7350,
      "##camera": 7351,
      "tette": 7352,
      "pesante": 7353,
      "##ssicu": 7354,
      "rapida": 7355,
      "vendite": 7356,
      "averlo": 7357,
      "magne": 7358,
      "##zzò": 7359,
      "statistica": 7360,
      "saro": 7361,
      "##gramma": 7362,
      "piacciono": 7363,
      "##cke": 7364,
      "##oss": 7365,
      "##gion": 7366,
      "comunale": 7367,
      "##gor": 7368,
      "farmaco": 7369,
      "concerne": 7370,
      "##68": 7371,
      "artigia": 7372,
      "sicilia": 7373,
      "attrezzature": 7374,
      "seguendo": 7375,
      "scaricare": 7376,
      "brutto": 7377,
      "offrono": 7378,
      "registro": 7379,
      "##gino": 7380,
      "bari": 7381,
      "38": 7382,
      "##tru": 7383,
      "1°": 7384,
      "rifiuta": 7385,
      "##chel": 7386,
      "popoli": 7387,
      "agire": 7388,
      "provvedimenti": 7389,
      "elegante": 7390,
      "cittadino": 7391,
      "costretto": 7392,
      "riferisce": 7393,
      "salvato": 7394,
      "##ate": 7395,
      "preparare": 7396,
      "metropolitana": 7397,
      "rilass": 7398,
      "centrali": 7399,
      "legato": 7400,
      "inviato": 7401,
      "scusate": 7402,
      "conoscenze": 7403,
      "rischia": 7404,
      "matura": 7405,
      "daniel": 7406,
      "##culo": 7407,
      "##27": 7408,
      "calcolo": 7409,
      "civili": 7410,
      "italiane": 7411,
      "pl": 7412,
      "rapido": 7413,
      "##lizzati": 7414,
      "firmato": 7415,
      "##evento": 7416,
      "vendere": 7417,
      "##informa": 7418,
      "1986": 7419,
      "favorevole": 7420,
      "denominazione": 7421,
      "download": 7422,
      "social": 7423,
      "##!\"": 7424,
      "##urato": 7425,
      "##ast": 7426,
      "fiscale": 7427,
      "corretta": 7428,
      "visti": 7429,
      "raccogliere": 7430,
      "render": 7431,
      "##letta": 7432,
      "orale": 7433,
      "##%)": 7434,
      "##'\"": 7435,
      "##utica": 7436,
      "##alizzazione": 7437,
      "salv": 7438,
      "##?\"": 7439,
      "frazione": 7440,
      "largo": 7441,
      "alessan": 7442,
      "core": 7443,
      "pregiudi": 7444,
      "grand": 7445,
      "metal": 7446,
      "ferra": 7447,
      "##usalemme": 7448,
      "##ressione": 7449,
      "consapevole": 7450,
      "trovata": 7451,
      "ingresso": 7452,
      "persegui": 7453,
      "##tagna": 7454,
      "tag": 7455,
      "##bs": 7456,
      "auspi": 7457,
      "destino": 7458,
      "fattore": 7459,
      "louis": 7460,
      "##impegno": 7461,
      "jose": 7462,
      "psicolo": 7463,
      "sla": 7464,
      "##ccata": 7465,
      "addosso": 7466,
      "esteri": 7467,
      "banda": 7468,
      "attua": 7469,
      "competitività": 7470,
      "conferi": 7471,
      "mur": 7472,
      "sparato": 7473,
      "##impiego": 7474,
      "suici": 7475,
      "probabile": 7476,
      "##ennale": 7477,
      "##.5": 7478,
      "sou": 7479,
      "britannico": 7480,
      "##sei": 7481,
      "christi": 7482,
      "compagnie": 7483,
      "esempi": 7484,
      "legger": 7485,
      "appassion": 7486,
      "##rocco": 7487,
      "analo": 7488,
      "birra": 7489,
      "##erve": 7490,
      "inclusa": 7491,
      "modificata": 7492,
      "ambienti": 7493,
      "vincen": 7494,
      "mali": 7495,
      "##insegna": 7496,
      "info": 7497,
      "afri": 7498,
      "ubria": 7499,
      "taxi": 7500,
      "spera": 7501,
      "incro": 7502,
      "##prima": 7503,
      "interessanti": 7504,
      "ove": 7505,
      "recuperare": 7506,
      "##tha": 7507,
      "spin": 7508,
      "archeo": 7509,
      "conveni": 7510,
      "americana": 7511,
      "##opportunità": 7512,
      "infi": 7513,
      "avverti": 7514,
      "lasciando": 7515,
      "rina": 7516,
      "bet": 7517,
      "##asse": 7518,
      "caratteristica": 7519,
      "duca": 7520,
      "ritiro": 7521,
      "torno": 7522,
      "lunghi": 7523,
      "##occhiata": 7524,
      "scienze": 7525,
      "##stati": 7526,
      "venerdì": 7527,
      "====": 7528,
      "parità": 7529,
      "calma": 7530,
      "preli": 7531,
      "andati": 7532,
      "abu": 7533,
      "municip": 7534,
      "mostrato": 7535,
      "rai": 7536,
      "jon": 7537,
      "cora": 7538,
      "##artista": 7539,
      "gerusalemme": 7540,
      "pertin": 7541,
      "fondato": 7542,
      "prezio": 7543,
      "studiare": 7544,
      "applicabili": 7545,
      "esecu": 7546,
      "dero": 7547,
      "gay": 7548,
      "discutere": 7549,
      "##bla": 7550,
      "##mante": 7551,
      "##gliare": 7552,
      "porre": 7553,
      "international": 7554,
      "lavorazione": 7555,
      "mezza": 7556,
      "possibilita": 7557,
      "masch": 7558,
      "smi": 7559,
      "glielo": 7560,
      "colonia": 7561,
      "singola": 7562,
      "##oce": 7563,
      "##cchiere": 7564,
      "setta": 7565,
      "nacque": 7566,
      "carino": 7567,
      "volevi": 7568,
      "sardegna": 7569,
      "sindaco": 7570,
      "catalogo": 7571,
      "testimonianza": 7572,
      "##cane": 7573,
      "vengano": 7574,
      "1991": 7575,
      "scappare": 7576,
      "saresti": 7577,
      "diagno": 7578,
      "parliamo": 7579,
      "alte": 7580,
      "back": 7581,
      "piacevole": 7582,
      "calore": 7583,
      "inserire": 7584,
      "cinqu": 7585,
      "sintomi": 7586,
      "noleggio": 7587,
      "madonna": 7588,
      "##ama": 7589,
      "##ganti": 7590,
      "jer": 7591,
      "avvicin": 7592,
      "divor": 7593,
      "tetto": 7594,
      "chiami": 7595,
      "originari": 7596,
      "bellissimo": 7597,
      "distribuito": 7598,
      "android": 7599,
      "180": 7600,
      "comprendere": 7601,
      "rivoluzione": 7602,
      "quarta": 7603,
      "fisico": 7604,
      "##obbligo": 7605,
      "organizzare": 7606,
      "jih": 7607,
      "##vedere": 7608,
      "gradu": 7609,
      "imprendi": 7610,
      "##now": 7611,
      "crescente": 7612,
      "elevata": 7613,
      "adozione": 7614,
      "chiamate": 7615,
      "sarò": 7616,
      "##ted": 7617,
      "suda": 7618,
      "##tusia": 7619,
      "squ": 7620,
      "breakfast": 7621,
      "napole": 7622,
      "sotti": 7623,
      "matrimoniale": 7624,
      "assumere": 7625,
      "condotto": 7626,
      "##ssina": 7627,
      "aiutarti": 7628,
      "caratterizzata": 7629,
      "concluso": 7630,
      "crimine": 7631,
      "nascosto": 7632,
      "deuts": 7633,
      "ravvi": 7634,
      "bulga": 7635,
      "dottoressa": 7636,
      "prestigio": 7637,
      "##cipi": 7638,
      "offerto": 7639,
      "##ons": 7640,
      "##pose": 7641,
      "confronta": 7642,
      "parete": 7643,
      "comunicazioni": 7644,
      "bomb": 7645,
      "prestiti": 7646,
      "merce": 7647,
      "orizzon": 7648,
      "trenta": 7649,
      "giuro": 7650,
      "conquista": 7651,
      "imper": 7652,
      "ascoltare": 7653,
      "prenotare": 7654,
      "forno": 7655,
      "menu": 7656,
      "##well": 7657,
      "esserci": 7658,
      "tendenza": 7659,
      "testimone": 7660,
      "dimostrare": 7661,
      "convi": 7662,
      "ghiaccio": 7663,
      "mario": 7664,
      "sposato": 7665,
      "ballare": 7666,
      "##lf": 7667,
      "radia": 7668,
      "##)*": 7669,
      "innanzi": 7670,
      "gazzetta": 7671,
      "convo": 7672,
      "profondo": 7673,
      "ferroviaria": 7674,
      "magia": 7675,
      "sensazione": 7676,
      "##nati": 7677,
      "trovo": 7678,
      "suona": 7679,
      "##ald": 7680,
      "jihlava": 7681,
      "implica": 7682,
      "qualifica": 7683,
      "produce": 7684,
      "##izione": 7685,
      "##dier": 7686,
      "funzionalità": 7687,
      "sostiene": 7688,
      "facebook": 7689,
      "famosa": 7690,
      "##lis": 7691,
      "condividere": 7692,
      "dovuta": 7693,
      "talvolta": 7694,
      "batteria": 7695,
      "morale": 7696,
      "##maggio": 7697,
      "memori": 7698,
      "##arvi": 7699,
      "mr": 7700,
      "intelle": 7701,
      "ripri": 7702,
      "stanze": 7703,
      "comma": 7704,
      "(3": 7705,
      "metallo": 7706,
      "personalità": 7707,
      "##esterno": 7708,
      "pagato": 7709,
      "(2)": 7710,
      "##dando": 7711,
      "guai": 7712,
      "vederti": 7713,
      "cammino": 7714,
      "##luenza": 7715,
      "guardate": 7716,
      "convinto": 7717,
      "##nazione": 7718,
      "##74": 7719,
      "puls": 7720,
      "(5": 7721,
      "blog": 7722,
      "appren": 7723,
      "##inghi": 7724,
      "##inca": 7725,
      "promesso": 7726,
      "##lavo": 7727,
      "magazzino": 7728,
      "asciuga": 7729,
      "##amp": 7730,
      "concorso": 7731,
      "##umanità": 7732,
      "preferito": 7733,
      "ecci": 7734,
      "industrie": 7735,
      "plastica": 7736,
      "quadra": 7737,
      "deputati": 7738,
      "resa": 7739,
      "flotta": 7740,
      "sfide": 7741,
      "##glo": 7742,
      "42": 7743,
      "##cella": 7744,
      "lisbona": 7745,
      "##idi": 7746,
      "esseri": 7747,
      "filosofia": 7748,
      "espa": 7749,
      "portando": 7750,
      "giorgio": 7751,
      "precedenza": 7752,
      "##meo": 7753,
      "ostacoli": 7754,
      "##iali": 7755,
      "utilizzate": 7756,
      "sesto": 7757,
      "bretagna": 7758,
      "trasparenza": 7759,
      "attacchi": 7760,
      "madrid": 7761,
      "nipote": 7762,
      "elettrico": 7763,
      "cominciare": 7764,
      "riesci": 7765,
      "pericoloso": 7766,
      "##cero": 7767,
      "limitata": 7768,
      "sapre": 7769,
      "##onosci": 7770,
      "venite": 7771,
      "##mentali": 7772,
      "insi": 7773,
      "match": 7774,
      "cami": 7775,
      "universale": 7776,
      "benefici": 7777,
      "somministra": 7778,
      "dovevo": 7779,
      "limitato": 7780,
      "gem": 7781,
      "suolo": 7782,
      "rubato": 7783,
      "servire": 7784,
      "pasti": 7785,
      "]": 7786,
      "##ttività": 7787,
      "##golare": 7788,
      "parrocchia": 7789,
      "competizione": 7790,
      "private": 7791,
      "totalmente": 7792,
      "##lesia": 7793,
      "smar": 7794,
      "ly": 7795,
      "lezione": 7796,
      "palle": 7797,
      "posteriore": 7798,
      "sentimenti": 7799,
      "##field": 7800,
      "giudizia": 7801,
      "supplementari": 7802,
      "fiera": 7803,
      "manifestazione": 7804,
      "marca": 7805,
      "immobiliari": 7806,
      "forum": 7807,
      "olimpi": 7808,
      "fornitura": 7809,
      "##her": 7810,
      "paradiso": 7811,
      "costituita": 7812,
      "musco": 7813,
      "ol": 7814,
      "umane": 7815,
      "rio": 7816,
      "bicicle": 7817,
      "finali": 7818,
      "estate": 7819,
      "sconosci": 7820,
      "riconoscere": 7821,
      "##moto": 7822,
      "stronzo": 7823,
      "autobus": 7824,
      "intendo": 7825,
      "arrivata": 7826,
      "diventando": 7827,
      "circuito": 7828,
      "sfu": 7829,
      "maggiormente": 7830,
      "bosco": 7831,
      "bell": 7832,
      "##64": 7833,
      "guardando": 7834,
      "possiede": 7835,
      "##rì": 7836,
      "1984": 7837,
      "clau": 7838,
      "considerati": 7839,
      "acp": 7840,
      "indicare": 7841,
      "##ule": 7842,
      "gloria": 7843,
      "prospettive": 7844,
      "##cera": 7845,
      "verb": 7846,
      "agen": 7847,
      "essenziali": 7848,
      "spari": 7849,
      "discre": 7850,
      "##mpere": 7851,
      "interne": 7852,
      "scrittura": 7853,
      "chiudere": 7854,
      "prossimi": 7855,
      "120": 7856,
      "award": 7857,
      "lee": 7858,
      "brucia": 7859,
      "certificato": 7860,
      "##kin": 7861,
      "adottata": 7862,
      "fallo": 7863,
      "kar": 7864,
      "decisamente": 7865,
      "cima": 7866,
      "ripresa": 7867,
      "accer": 7868,
      "mill": 7869,
      "##nei": 7870,
      "##vine": 7871,
      "lord": 7872,
      "croci": 7873,
      "book": 7874,
      "##curi": 7875,
      "istituti": 7876,
      "cominciato": 7877,
      "eseguire": 7878,
      "##eccellente": 7879,
      "uova": 7880,
      "campioni": 7881,
      "divano": 7882,
      "tatua": 7883,
      "effettuato": 7884,
      "rispettare": 7885,
      "portale": 7886,
      "##62": 7887,
      "canali": 7888,
      "cilin": 7889,
      "venendo": 7890,
      "finanziamenti": 7891,
      "vergine": 7892,
      "favorire": 7893,
      "equival": 7894,
      "eco": 7895,
      "artifi": 7896,
      "industria": 7897,
      "raccomandazione": 7898,
      "piede": 7899,
      "##ttri": 7900,
      "49": 7901,
      "conversa": 7902,
      "##gale": 7903,
      "##zionario": 7904,
      "##interpre": 7905,
      "disposto": 7906,
      "rilascio": 7907,
      "chiamar": 7908,
      "##emen": 7909,
      "energetica": 7910,
      "var": 7911,
      "originali": 7912,
      "scrisse": 7913,
      "comm": 7914,
      "##nta": 7915,
      "indagini": 7916,
      "esprimere": 7917,
      "apposi": 7918,
      "##out": 7919,
      "kit": 7920,
      "chiari": 7921,
      "week": 7922,
      "brev": 7923,
      "legame": 7924,
      "##angolo": 7925,
      "doc": 7926,
      "##rente": 7927,
      "##fan": 7928,
      "##vide": 7929,
      "sensibili": 7930,
      "amb": 7931,
      "inghi": 7932,
      "poveri": 7933,
      "presen": 7934,
      "gomma": 7935,
      "medaglia": 7936,
      "montagne": 7937,
      "costre": 7938,
      "linguaggio": 7939,
      "lingu": 7940,
      "gambe": 7941,
      "##lte": 7942,
      "2:": 7943,
      "eccezione": 7944,
      "ottenne": 7945,
      "quotidiano": 7946,
      "cavalli": 7947,
      "riguardano": 7948,
      "##sor": 7949,
      "incontrare": 7950,
      "testimonia": 7951,
      "monitoraggio": 7952,
      "rotta": 7953,
      "televisiva": 7954,
      "mobilità": 7955,
      "rumore": 7956,
      "master": 7957,
      "(1)": 7958,
      "venivano": 7959,
      "##accu": 7960,
      "gioi": 7961,
      "diciamo": 7962,
      "##ulo": 7963,
      "##\";": 7964,
      "monti": 7965,
      "latina": 7966,
      "passando": 7967,
      "green": 7968,
      "conosciuta": 7969,
      "morbi": 7970,
      "see": 7971,
      "avanzata": 7972,
      "salo": 7973,
      "baby": 7974,
      "fuma": 7975,
      "tariffe": 7976,
      "##urt": 7977,
      "virtù": 7978,
      "fortemente": 7979,
      "spada": 7980,
      "usati": 7981,
      "loren": 7982,
      "##altezza": 7983,
      "sva": 7984,
      "vorrebbe": 7985,
      "gradi": 7986,
      "esce": 7987,
      "balcone": 7988,
      "avremo": 7989,
      "##right": 7990,
      "inghilterra": 7991,
      "farebbe": 7992,
      "high": 7993,
      "##entri": 7994,
      "aiutato": 7995,
      "##gru": 7996,
      "organizzata": 7997,
      "eccell": 7998,
      "scul": 7999,
      "quadri": 8000,
      "tipico": 8001,
      "sembri": 8002,
      "1:": 8003,
      "profonda": 8004,
      "congresso": 8005,
      "scopre": 8006,
      "sanità": 8007,
      "golf": 8008,
      "genova": 8009,
      "assegnato": 8010,
      "scientifico": 8011,
      "will": 8012,
      "dr": 8013,
      "sfruttare": 8014,
      "bara": 8015,
      "8.": 8016,
      "avviare": 8017,
      "scott": 8018,
      "##inario": 8019,
      "alimenti": 8020,
      "##indagine": 8021,
      "guidare": 8022,
      "##lyn": 8023,
      "presentati": 8024,
      "##autorizzazione": 8025,
      "vasca": 8026,
      "##sivo": 8027,
      "##vania": 8028,
      "pulizia": 8029,
      "cicli": 8030,
      "fotografia": 8031,
      "termin": 8032,
      "indipendenti": 8033,
      "fedeli": 8034,
      "senta": 8035,
      "rilievo": 8036,
      "nonno": 8037,
      "andrea": 8038,
      "blocco": 8039,
      "##faccia": 8040,
      "vissuto": 8041,
      "coopera": 8042,
      "##abi": 8043,
      "barri": 8044,
      "##atmosfera": 8045,
      "##ssati": 8046,
      "effettuati": 8047,
      "sky": 8048,
      "##iana": 8049,
      "diventata": 8050,
      "1983": 8051,
      "##remo": 8052,
      "jim": 8053,
      "vengo": 8054,
      "stretta": 8055,
      "affermato": 8056,
      "tenente": 8057,
      "scomparsa": 8058,
      "eppure": 8059,
      "corretto": 8060,
      "brani": 8061,
      "lenta": 8062,
      "anali": 8063,
      "##installazione": 8064,
      "##stor": 8065,
      "perde": 8066,
      "ammessi": 8067,
      "programmazione": 8068,
      "sospensione": 8069,
      "sepo": 8070,
      "ritengo": 8071,
      "federazione": 8072,
      "##glielo": 8073,
      "trono": 8074,
      "national": 8075,
      "contare": 8076,
      "##etichetta": 8077,
      "basilica": 8078,
      "aspettando": 8079,
      "dou": 8080,
      "confini": 8081,
      "riuscita": 8082,
      "up": 8083,
      "dichiarazioni": 8084,
      "sogni": 8085,
      "oriente": 8086,
      "##accademia": 8087,
      "appartenente": 8088,
      "use": 8089,
      "05": 8090,
      "under": 8091,
      "carbone": 8092,
      "compagno": 8093,
      "flusso": 8094,
      "##gliamento": 8095,
      "procedimento": 8096,
      "cie": 8097,
      "##phone": 8098,
      "##teremo": 8099,
      "stagioni": 8100,
      "##ken": 8101,
      "prec": 8102,
      "tony": 8103,
      "company": 8104,
      "cristiano": 8105,
      "##hu": 8106,
      "atle": 8107,
      "censi": 8108,
      "vati": 8109,
      "letteratura": 8110,
      "bandiera": 8111,
      "foot": 8112,
      "perfor": 8113,
      "riprese": 8114,
      "rese": 8115,
      "panoramica": 8116,
      "##zionati": 8117,
      "certe": 8118,
      "ebrai": 8119,
      "corro": 8120,
      "addetti": 8121,
      "alessandro": 8122,
      "##-11": 8123,
      "congregazione": 8124,
      "##mestre": 8125,
      "##elabo": 8126,
      "lancio": 8127,
      "rimasta": 8128,
      "professionisti": 8129,
      "andrà": 8130,
      "distruzione": 8131,
      "##erra": 8132,
      "conci": 8133,
      "massi": 8134,
      "solidarietà": 8135,
      "malta": 8136,
      "corpi": 8137,
      "pub": 8138,
      "##miamo": 8139,
      "pop": 8140,
      "##ulso": 8141,
      "##zano": 8142,
      "visualizzare": 8143,
      "##udo": 8144,
      "##03": 8145,
      "lezioni": 8146,
      "ravvicina": 8147,
      "alluminio": 8148,
      "##blo": 8149,
      "hy": 8150,
      "##day": 8151,
      "##esportazione": 8152,
      "##top": 8153,
      "##tele": 8154,
      "iscritto": 8155,
      "staff": 8156,
      "notato": 8157,
      "avranno": 8158,
      "annunciato": 8159,
      "governatore": 8160,
      "usi": 8161,
      "autenti": 8162,
      "butta": 8163,
      "##opzione": 8164,
      "naso": 8165,
      "portò": 8166,
      "prete": 8167,
      "ante": 8168,
      "progresso": 8169,
      "##istenti": 8170,
      "##rca": 8171,
      "impianto": 8172,
      "istituito": 8173,
      "designa": 8174,
      "fram": 8175,
      "diploma": 8176,
      "##ns": 8177,
      "angeli": 8178,
      "etichetta": 8179,
      "kil": 8180,
      "##arca": 8181,
      "attivi": 8182,
      "##fru": 8183,
      "lau": 8184,
      "scadenza": 8185,
      "compra": 8186,
      "account": 8187,
      "generi": 8188,
      "avremmo": 8189,
      "franç": 8190,
      "crescere": 8191,
      "venduto": 8192,
      "poliziotto": 8193,
      "orari": 8194,
      "##opin": 8195,
      "##presidente": 8196,
      "scelte": 8197,
      "componente": 8198,
      "##lita": 8199,
      "solare": 8200,
      "retti": 8201,
      "##bis": 8202,
      "##fini": 8203,
      "##ttrice": 8204,
      "##pping": 8205,
      "vienna": 8206,
      "tensione": 8207,
      "risultano": 8208,
      "##erei": 8209,
      "gigante": 8210,
      "panta": 8211,
      "regolamenti": 8212,
      "##mori": 8213,
      "##ampia": 8214,
      "99": 8215,
      "annuncio": 8216,
      "canta": 8217,
      "##argento": 8218,
      "scienzia": 8219,
      "pensioni": 8220,
      "individui": 8221,
      "riguardante": 8222,
      "precisione": 8223,
      "aggiunta": 8224,
      "##ongo": 8225,
      "##sene": 8226,
      "ela": 8227,
      "imparato": 8228,
      "decreto": 8229,
      "vergo": 8230,
      "##ttene": 8231,
      "povertà": 8232,
      "##liano": 8233,
      "rilevante": 8234,
      "acquista": 8235,
      "documentazione": 8236,
      "##port": 8237,
      "reazioni": 8238,
      "sembrare": 8239,
      "coda": 8240,
      "castel": 8241,
      "##cherà": 8242,
      "accompa": 8243,
      "rimar": 8244,
      "mostrare": 8245,
      "argenti": 8246,
      "##fri": 8247,
      "##gazioni": 8248,
      "anticipa": 8249,
      "quaran": 8250,
      "leggermente": 8251,
      "##dar": 8252,
      "residenziale": 8253,
      "viaggiare": 8254,
      "concesso": 8255,
      "corrispondente": 8256,
      "##voca": 8257,
      "documenta": 8258,
      "cittadina": 8259,
      "ine": 8260,
      "chri": 8261,
      "raccomandazioni": 8262,
      "andra": 8263,
      "ricordato": 8264,
      "mettendo": 8265,
      "##acco": 8266,
      "##iezione": 8267,
      "dovrai": 8268,
      "invitato": 8269,
      "##án": 8270,
      "collina": 8271,
      "mosca": 8272,
      "##kes": 8273,
      "##oggi": 8274,
      "importo": 8275,
      "complessivo": 8276,
      "permetter": 8277,
      "agricole": 8278,
      "supporta": 8279,
      "##bert": 8280,
      "44": 8281,
      "##kh": 8282,
      "vertice": 8283,
      "##ticamente": 8284,
      "farmaci": 8285,
      "fusione": 8286,
      "##omicidio": 8287,
      "giuridico": 8288,
      "ross": 8289,
      "normalmente": 8290,
      "serra": 8291,
      "dovere": 8292,
      "10.": 8293,
      "3:": 8294,
      "250": 8295,
      "identifica": 8296,
      "abbra": 8297,
      "walter": 8298,
      "enrico": 8299,
      "difficili": 8300,
      "##mie": 8301,
      "dotata": 8302,
      "##hat": 8303,
      "##oniche": 8304,
      "##onio": 8305,
      "larghe": 8306,
      "sentite": 8307,
      "dna": 8308,
      "scorsa": 8309,
      "##razz": 8310,
      "##attacco": 8311,
      "ira": 8312,
      "seg": 8313,
      "inglesi": 8314,
      "scen": 8315,
      "##ish": 8316,
      "importi": 8317,
      "fiore": 8318,
      "villaggi": 8319,
      "olandese": 8320,
      "partenaria": 8321,
      "vertica": 8322,
      "ordinato": 8323,
      "prega": 8324,
      "##male": 8325,
      "scop": 8326,
      "sviluppi": 8327,
      "##lus": 8328,
      "tassa": 8329,
      "votazione": 8330,
      "dvd": 8331,
      "##miglia": 8332,
      "##back": 8333,
      "risposto": 8334,
      "mostro": 8335,
      "1980": 8336,
      "##india": 8337,
      "netto": 8338,
      "origini": 8339,
      "spiegare": 8340,
      "addio": 8341,
      "vacc": 8342,
      "accedi": 8343,
      "dite": 8344,
      "##impianto": 8345,
      "pensate": 8346,
      "personalmente": 8347,
      "##cona": 8348,
      "chimica": 8349,
      "##estici": 8350,
      "mos": 8351,
      "angelo": 8352,
      "##rk": 8353,
      "##ola": 8354,
      "mission": 8355,
      "integrazione": 8356,
      "musicis": 8357,
      "copie": 8358,
      "cavi": 8359,
      "paesaggio": 8360,
      "statu": 8361,
      "benché": 8362,
      "casti": 8363,
      "distrutto": 8364,
      "--": 8365,
      "##erla": 8366,
      "definitiva": 8367,
      "##medi": 8368,
      "architettura": 8369,
      "ottenuti": 8370,
      "bevan": 8371,
      "##latore": 8372,
      "spagnola": 8373,
      "potevo": 8374,
      "realmente": 8375,
      "dimenticare": 8376,
      "farla": 8377,
      "600": 8378,
      "giornale": 8379,
      "tessuti": 8380,
      "orgoglio": 8381,
      "progettato": 8382,
      "velocemente": 8383,
      "razz": 8384,
      "pesci": 8385,
      "transfer": 8386,
      "frontiere": 8387,
      "bomba": 8388,
      "panorama": 8389,
      "rappresentato": 8390,
      "##iche": 8391,
      "statuto": 8392,
      "perdite": 8393,
      "##iner": 8394,
      "##dermi": 8395,
      "##camere": 8396,
      "impresa": 8397,
      "##rerà": 8398,
      "##ficano": 8399,
      "frase": 8400,
      "precedentemente": 8401,
      "adesione": 8402,
      "distruggere": 8403,
      "chiavi": 8404,
      "merita": 8405,
      "diffuso": 8406,
      "mercole": 8407,
      "##nu": 8408,
      "determinazione": 8409,
      "pavimento": 8410,
      "##59": 8411,
      "hor": 8412,
      "manager": 8413,
      "allontana": 8414,
      "cancro": 8415,
      "##gionamento": 8416,
      "juli": 8417,
      "scrittore": 8418,
      "##esca": 8419,
      "wh": 8420,
      "cardinale": 8421,
      "##nice": 8422,
      "provviso": 8423,
      "idiota": 8424,
      "autorizzazione": 8425,
      "terrori": 8426,
      "1.2": 8427,
      "caratterizzato": 8428,
      "(4": 8429,
      "##ding": 8430,
      "amministrative": 8431,
      "annulla": 8432,
      "##universo": 8433,
      "##gliate": 8434,
      "comprese": 8435,
      "profondità": 8436,
      "diametro": 8437,
      "mossa": 8438,
      "entusia": 8439,
      "##niche": 8440,
      "fornitori": 8441,
      "##miti": 8442,
      "selezionare": 8443,
      "piet": 8444,
      "crediti": 8445,
      "sarah": 8446,
      "esemplari": 8447,
      "godere": 8448,
      "infini": 8449,
      "verdi": 8450,
      "esaminare": 8451,
      "deca": 8452,
      "diffon": 8453,
      "leo": 8454,
      "parlo": 8455,
      "##dove": 8456,
      "confermato": 8457,
      "##tunno": 8458,
      "facciata": 8459,
      "passati": 8460,
      "##vieto": 8461,
      "##lizia": 8462,
      "##cea": 8463,
      "##uita": 8464,
      "##llante": 8465,
      "zitto": 8466,
      "antiche": 8467,
      "sottolinea": 8468,
      "economia": 8469,
      "##investi": 8470,
      "agricolo": 8471,
      "coniu": 8472,
      "̈": 8473,
      "parl": 8474,
      "##esposizione": 8475,
      "##mond": 8476,
      "doganali": 8477,
      "##veranno": 8478,
      "##sono": 8479,
      "popolazioni": 8480,
      "##irlanda": 8481,
      "alfa": 8482,
      "records": 8483,
      "controllato": 8484,
      "2000,": 8485,
      "##viazione": 8486,
      "acido": 8487,
      "##tania": 8488,
      "iper": 8489,
      "incinta": 8490,
      "altrettanto": 8491,
      "incenti": 8492,
      "classica": 8493,
      "gino": 8494,
      "guerri": 8495,
      "stupida": 8496,
      "divertimento": 8497,
      "bolle": 8498,
      "mica": 8499,
      "marchi": 8500,
      "malva": 8501,
      "tai": 8502,
      "legislazioni": 8503,
      "temo": 8504,
      "predi": 8505,
      "1.3": 8506,
      "stabile": 8507,
      "riconosce": 8508,
      "##wor": 8509,
      "##onati": 8510,
      "esportazioni": 8511,
      "##pio": 8512,
      "camion": 8513,
      "##evo": 8514,
      "colpevole": 8515,
      "##bot": 8516,
      "##67": 8517,
      "galle": 8518,
      "valenti": 8519,
      "fermar": 8520,
      "lasciate": 8521,
      "indire": 8522,
      "dolci": 8523,
      "visibile": 8524,
      "meccanismi": 8525,
      "ricevi": 8526,
      "trenitalia": 8527,
      "##gerà": 8528,
      "bagni": 8529,
      "##chiesta": 8530,
      "racconto": 8531,
      "coinci": 8532,
      "sexy": 8533,
      "uman": 8534,
      "passò": 8535,
      "esercito": 8536,
      "aero": 8537,
      "supre": 8538,
      "splendida": 8539,
      "##nor": 8540,
      "normali": 8541,
      "milione": 8542,
      "stazioni": 8543,
      "##92": 8544,
      "venuti": 8545,
      "adole": 8546,
      "determinati": 8547,
      "comodo": 8548,
      "adoro": 8549,
      "ridotta": 8550,
      "arrivano": 8551,
      "##ramento": 8552,
      "sabbia": 8553,
      "rifugio": 8554,
      "network": 8555,
      "bun": 8556,
      "finisce": 8557,
      "box": 8558,
      "##ans": 8559,
      "cole": 8560,
      "##atte": 8561,
      "##ggiati": 8562,
      "vinse": 8563,
      "##istiche": 8564,
      "riportato": 8565,
      "##ciano": 8566,
      "prestazione": 8567,
      "intanto": 8568,
      "finlandia": 8569,
      "##udi": 8570,
      "##argo": 8571,
      "strana": 8572,
      "contenente": 8573,
      "simpa": 8574,
      "recensione": 8575,
      "edizioni": 8576,
      "onda": 8577,
      "risale": 8578,
      "pil": 8579,
      "sicuri": 8580,
      "quote": 8581,
      "##94": 8582,
      "cattivo": 8583,
      "fotografie": 8584,
      "##efficacia": 8585,
      "funzionare": 8586,
      "chiedi": 8587,
      "censimento": 8588,
      "ecolo": 8589,
      "inverti": 8590,
      "##rdini": 8591,
      "##scenti": 8592,
      "funzionari": 8593,
      "##tio": 8594,
      "bugia": 8595,
      "ditta": 8596,
      "steve": 8597,
      "bestia": 8598,
      "##cap": 8599,
      "separa": 8600,
      "nav": 8601,
      "dovesse": 8602,
      "conforte": 8603,
      "~": 8604,
      "deutsch": 8605,
      "##inferno": 8606,
      "croazia": 8607,
      "rendono": 8608,
      "apparecchi": 8609,
      "nt": 8610,
      "definitivamente": 8611,
      "trattamenti": 8612,
      "stavi": 8613,
      "amministrazioni": 8614,
      "scopa": 8615,
      "opinioni": 8616,
      "monastero": 8617,
      "##tiamo": 8618,
      "violazione": 8619,
      "riass": 8620,
      "##due": 8621,
      "rall": 8622,
      "zione": 8623,
      "1000": 8624,
      "medica": 8625,
      "avviso": 8626,
      "genero": 8627,
      "##base": 8628,
      "##venza": 8629,
      "regg": 8630,
      "##ottobre": 8631,
      "xix": 8632,
      "pomp": 8633,
      "vide": 8634,
      "##austria": 8635,
      "indossa": 8636,
      "monete": 8637,
      "##9)": 8638,
      "approfi": 8639,
      "##fbi": 8640,
      "gr": 8641,
      "clinica": 8642,
      "monetaria": 8643,
      "ricordati": 8644,
      "football": 8645,
      "significativo": 8646,
      "attori": 8647,
      "percio": 8648,
      "sping": 8649,
      "sufficienti": 8650,
      "preparato": 8651,
      "ku": 8652,
      "avvis": 8653,
      "##pie": 8654,
      "smettere": 8655,
      "scho": 8656,
      "tende": 8657,
      "appunto": 8658,
      "##nelli": 8659,
      "spiagge": 8660,
      "##meni": 8661,
      "fissato": 8662,
      "impedire": 8663,
      "taba": 8664,
      "ricchi": 8665,
      "penna": 8666,
      "##-13": 8667,
      "##ttente": 8668,
      "collegio": 8669,
      "##sterdam": 8670,
      "lavan": 8671,
      "potevano": 8672,
      "liberi": 8673,
      "disegni": 8674,
      "entrò": 8675,
      "##mita": 8676,
      "##voce": 8677,
      "mad": 8678,
      "punteggio": 8679,
      "grig": 8680,
      "##dence": 8681,
      "##61": 8682,
      "##abbia": 8683,
      "ultra": 8684,
      "scorta": 8685,
      "procla": 8686,
      "dea": 8687,
      "muore": 8688,
      "derivanti": 8689,
      "##elaborazione": 8690,
      "cerimonia": 8691,
      "##dori": 8692,
      "correre": 8693,
      "impiego": 8694,
      "corrisponde": 8695,
      "danza": 8696,
      "##vet": 8697,
      "##hr": 8698,
      "ferito": 8699,
      "addestra": 8700,
      "leone": 8701,
      "===": 8702,
      "rifugia": 8703,
      "automatico": 8704,
      "compiere": 8705,
      "incu": 8706,
      "flash": 8707,
      "cotone": 8708,
      "offi": 8709,
      "capri": 8710,
      "proseguire": 8711,
      "parlamentare": 8712,
      "parziale": 8713,
      "pareti": 8714,
      "##ovest": 8715,
      "trasmesso": 8716,
      "43": 8717,
      "twi": 8718,
      "##ttoli": 8719,
      "corse": 8720,
      "syste": 8721,
      "prolun": 8722,
      "conteni": 8723,
      "coinvolto": 8724,
      "##gliano": 8725,
      "##----------------": 8726,
      "##editi": 8727,
      "##df": 8728,
      "sovietica": 8729,
      "##inò": 8730,
      "##istito": 8731,
      "assur": 8732,
      "##63": 8733,
      "russa": 8734,
      "soffi": 8735,
      "adora": 8736,
      "lasciami": 8737,
      "salvezza": 8738,
      "pho": 8739,
      "##04": 8740,
      "##mance": 8741,
      "principessa": 8742,
      "##vesco": 8743,
      "gabri": 8744,
      "##opinione": 8745,
      "abili": 8746,
      "agricoltura": 8747,
      "bud": 8748,
      "##rmente": 8749,
      "##off": 8750,
      "22:": 8751,
      "plan": 8752,
      "stavano": 8753,
      "12,": 8754,
      "royal": 8755,
      "scappa": 8756,
      "##verno": 8757,
      "##sess": 8758,
      "culto": 8759,
      "caffe": 8760,
      "inutile": 8761,
      "##mt": 8762,
      "ciocco": 8763,
      "##strada": 8764,
      "riposo": 8765,
      "gravid": 8766,
      "prevedere": 8767,
      "aeroporti": 8768,
      "indice": 8769,
      "conduce": 8770,
      "digni": 8771,
      "presentate": 8772,
      "danny": 8773,
      "##missioni": 8774,
      "##inghilterra": 8775,
      "condividi": 8776,
      "##apri": 8777,
      "##tipo": 8778,
      "frutti": 8779,
      "giri": 8780,
      "lady": 8781,
      "pone": 8782,
      "bion": 8783,
      "epoca": 8784,
      "work": 8785,
      "aperti": 8786,
      "efficiente": 8787,
      "##olio": 8788,
      "affitto": 8789,
      "mattino": 8790,
      "tech": 8791,
      "bol": 8792,
      "##critto": 8793,
      "destinate": 8794,
      "colui": 8795,
      "statale": 8796,
      "reda": 8797,
      "ader": 8798,
      "conversione": 8799,
      "marino": 8800,
      "##terebbe": 8801,
      "##metraggio": 8802,
      "comprato": 8803,
      "sintesi": 8804,
      "##sey": 8805,
      "jimmy": 8806,
      "usate": 8807,
      "dipinto": 8808,
      "<": 8809,
      "energetico": 8810,
      "##zionalmente": 8811,
      "vincitore": 8812,
      "estensione": 8813,
      "chris": 8814,
      "intendi": 8815,
      "evoluzione": 8816,
      "educa": 8817,
      "9.": 8818,
      "vedre": 8819,
      "university": 8820,
      "rinfor": 8821,
      "strategie": 8822,
      "richiedere": 8823,
      "contemporanea": 8824,
      "##.10.": 8825,
      "##ben": 8826,
      "permettono": 8827,
      "ammon": 8828,
      "regolarmente": 8829,
      "riforme": 8830,
      "isbn": 8831,
      "correttamente": 8832,
      "##zu": 8833,
      "interven": 8834,
      "##mmer": 8835,
      "##illu": 8836,
      "##ltà": 8837,
      "favori": 8838,
      "sloven": 8839,
      "sanitaria": 8840,
      "fabbri": 8841,
      "foglie": 8842,
      "stamattina": 8843,
      "esposi": 8844,
      "preca": 8845,
      "wifi": 8846,
      "rifor": 8847,
      "cereali": 8848,
      "chiamati": 8849,
      "##dese": 8850,
      "##antico": 8851,
      "osse": 8852,
      "sottolineato": 8853,
      "place": 8854,
      "vescovi": 8855,
      "contemp": 8856,
      "argomenti": 8857,
      "gode": 8858,
      "blue": 8859,
      "pausa": 8860,
      "dun": 8861,
      "vattene": 8862,
      "trovava": 8863,
      "giardini": 8864,
      "aspettate": 8865,
      "##osserva": 8866,
      "##viera": 8867,
      "##ciata": 8868,
      "hall": 8869,
      "affascin": 8870,
      "##stu": 8871,
      "11.": 8872,
      "##lievi": 8873,
      "big": 8874,
      "##oh": 8875,
      "prati": 8876,
      "##cfr": 8877,
      "##alber": 8878,
      "assai": 8879,
      "equilibrio": 8880,
      "fermi": 8881,
      "gamba": 8882,
      "##gnò": 8883,
      "neve": 8884,
      "imposte": 8885,
      "simon": 8886,
      "uh": 8887,
      "scambia": 8888,
      "pittore": 8889,
      "occupato": 8890,
      "costrin": 8891,
      "notifica": 8892,
      "meraviglioso": 8893,
      "concludere": 8894,
      "##stando": 8895,
      "##liamento": 8896,
      "ia": 8897,
      "mul": 8898,
      "insedia": 8899,
      "##uch": 8900,
      "spen": 8901,
      "notti": 8902,
      "##%,": 8903,
      "norman": 8904,
      "deco": 8905,
      "mauri": 8906,
      "portano": 8907,
      "brevi": 8908,
      "##ré": 8909,
      "aggiornamento": 8910,
      "rivolu": 8911,
      "figure": 8912,
      "escursioni": 8913,
      "integrato": 8914,
      "investimento": 8915,
      "polli": 8916,
      "##landesi": 8917,
      "sacro": 8918,
      "##ecce": 8919,
      "individuale": 8920,
      "incorpo": 8921,
      "accumu": 8922,
      "cup": 8923,
      "##aere": 8924,
      "effettuate": 8925,
      "esor": 8926,
      "lunedì": 8927,
      "##ess": 8928,
      "parlarne": 8929,
      "##ult": 8930,
      "successive": 8931,
      "inferiori": 8932,
      "##ett": 8933,
      "ruote": 8934,
      "##coni": 8935,
      "##entamento": 8936,
      "cl": 8937,
      "gardena": 8938,
      "##unato": 8939,
      "valido": 8940,
      "fattura": 8941,
      "dotate": 8942,
      "musicali": 8943,
      "transa": 8944,
      "indispensabile": 8945,
      "neppure": 8946,
      "prodotta": 8947,
      "##.12": 8948,
      "sottolineare": 8949,
      "stabilimento": 8950,
      "effettuata": 8951,
      "##influenza": 8952,
      "assicurazione": 8953,
      "ricostrui": 8954,
      "riempi": 8955,
      "osservare": 8956,
      "101": 8957,
      "azzur": 8958,
      "1992,": 8959,
      "calco": 8960,
      "fermare": 8961,
      "previsioni": 8962,
      "amsterdam": 8963,
      "occhio": 8964,
      "presenze": 8965,
      "matte": 8966,
      "sop": 8967,
      "promessa": 8968,
      "##ccando": 8969,
      "##gibile": 8970,
      "relax": 8971,
      "digitali": 8972,
      "##gal": 8973,
      "##ray": 8974,
      "##cky": 8975,
      "fermata": 8976,
      "respira": 8977,
      "conferenze": 8978,
      "impron": 8979,
      "##tran": 8980,
      "pulsante": 8981,
      "nucleo": 8982,
      "elevati": 8983,
      "cann": 8984,
      "esistente": 8985,
      "acquistato": 8986,
[...]
